{"merges": {"101,32": 256, "115,32": 257, "116,104": 258, "105,110": 259, "97,110": 260, "101,114": 261, "100,32": 262, "116,32": 263, "111,110": 264, "44,32": 265, "101,110": 266, "258,256": 267, "46,10": 268, "111,114": 269, "46,32": 270, "259,103": 271, "115,116": 272, "97,114": 273, "111,32": 274, "121,32": 275, "111,117": 276, "97,116": 277, "114,101": 278, "97,108": 279, "97,32": 280, "271,32": 281, "58,32": 282, "260,262": 283, "116,274": 284, "102,32": 285, "115,105": 286, "111,285": 287, "116,105": 288, "101,262": 289, "105,257": 290, "111,109": 291, "101,115": 292, "101,257": 293, "261,32": 294, "99,104": 295, "101,108": 296, "259,32": 297, "111,119": 298, "116,282": 299, "105,116": 300, "264,32": 301, "105,99": 302, "84,104": 303, "97,263": 304, "114,111": 305, "97,99": 306, "115,286": 307, "115,261": 308, "269,32": 309, "260,32": 310, "108,101": 311, "272,260": 312, "105,108": 313, "32,32": 314, "10,85": 315, "307,312": 316, "111,108": 317, "97,257": 318, "116,101": 319, "97,115": 320, "65,316": 321, "308,282": 322, "321,299": 323, "315,322": 324, "114,105": 325, "108,105": 326, "117,114": 327, "118,256": 328, "266,116": 329, "279,32": 330, "117,115": 331, "108,32": 332, "100,105": 333, "97,109": 334, "266,32": 335, "101,99": 336, "121,276": 337, "277,105": 338, "103,104": 339, "101,109": 340, "258,32": 341, "115,104": 342, "303,256": 343, "112,108": 344, "268,324": 345, "117,110": 346, "226,128": 347, "97,98": 348, "119,105": 349, "45,32": 350, "101,116": 351, "73,78": 352, "105,114": 353, "83,32": 354, "101,100": 355, "107,32": 356, "112,305": 357, "102,309": 358, "119,104": 359, "108,111": 360, "97,103": 361, "97,107": 362, "115,265": 363, "105,109": 364, "97,100": 365, "69,32": 366, "97,112": 367, "347,153": 368, "73,32": 369, "349,341": 370, "115,117": 371, "112,32": 372, "268,323": 373, "295,32": 374, "258,304": 375, "100,101": 376, "118,261": 377, "110,32": 378, "99,256": 379, "99,291": 380, "108,275": 381, "99,264": 382, "273,256": 383, "117,108": 384, "101,265": 385, "97,121": 386, "277,256": 387, "266,263": 388, "108,256": 389, "111,112": 390, "319,120": 391, "67,264": 392, "65,82": 393, "101,120": 394, "118,105": 395, "98,256": 396, "65,32": 397, "105,263": 398, "63,10": 399, "115,101": 400, "69,82": 401, "287,267": 402, "117,109": 403, "276,110": 404, "337,32": 405, "116,114": 406, "110,101": 407, "109,111": 408, "98,101": 409, "102,269": 410, "119,269": 411, "104,97": 412, "392,391": 413, "115,112": 414, "413,299": 415, "65,78": 416, "108,298": 417, "258,101": 418, "117,116": 419, "297,267": 420, "79,78": 421, "84,72": 422, "39,257": 423, "102,114": 424, "102,102": 425, "115,270": 426, "288,264": 427, "121,265": 428, "104,290": 429, "111,111": 430, "113,117": 431, "84,32": 432, "276,263": 433, "291,32": 434, "314,314": 435, "117,99": 436, "257,283": 437, "99,310": 438, "338,264": 439, "112,111": 440, "104,101": 441, "116,261": 442, "114,32": 443, "110,111": 444, "108,262": 445, "109,101": 446, "115,263": 447, "97,275": 448, "79,82": 449, "112,261": 450, "268,415": 451, "284,267": 452, "10,323": 453, "45,45": 454, "116,257": 455, "97,259": 456, "362,256": 457, "119,101": 458, "298,32": 459, "338,301": 460, "265,283": 461, "103,114": 462, "424,434": 463, "104,256": 464, "119,318": 465, "109,32": 466, "99,105": 467, "276,445": 468, "99,278": 469, "100,257": 470, "101,270": 471, "272,114": 472, "353,32": 473, "115,256": 474, "266,99": 475, "260,103": 476, "279,108": 477, "261,256": 478, "117,263": 479, "87,104": 480, "273,32": 481, "83,84": 482, "107,257": 483, "89,10": 484, "100,256": 485, "99,108": 486, "101,263": 487, "69,10": 488, "105,339": 489, "258,294": 490, "101,272": 491, "264,256": 492, "279,332": 493, "98,275": 494, "266,379": 495, "368,257": 496, "84,270": 497, "112,278": 498, "99,111": 499, "72,256": 500, "257,284": 501, "289,284": 502, "103,105": 503, "33,10": 504, "270,73": 505, "100,111": 506, "267,102": 507, "115,268": 508, "412,328": 509, "352,71": 510, "116,111": 511, "112,101": 512, "103,32": 513, "292,265": 514, "101,268": 515, "115,329": 516, "256,287": 517, "276,339": 518, "117,372": 519, "68,32": 520, "104,364": 521, "266,288": 522, "292,115": 523, "119,32": 524, "82,79": 525, "266,261": 526, "98,111": 527, "97,295": 528, "302,32": 529, "105,115": 530, "360,111": 531, "380,112": 532, "103,111": 533, "109,269": 534, "118,335": 535, "118,294": 536, "337,443": 537, "348,389": 538, "97,118": 539, "100,261": 540, "102,101": 541, "288,301": 542, "281,267": 543, "115,274": 544, "105,122": 545, "273,116": 546, "276,114": 547, "317,417": 548, "258,290": 549, "117,272": 550, "298,378": 551, "69,78": 552, "109,256": 553, "259,256": 554, "418,473": 555, "32,350": 556, "454,10": 557, "327,256": 558, "313,332": 559, "100,277": 560, "89,276": 561, "270,65": 562, "270,83": 563, "260,100": 564, "270,343": 565, "422,366": 566, "65,67": 567, "117,278": 568, "65,84": 569, "261,257": 570, "288,99": 571, "10,324": 572, "79,85": 573, "300,275": 574, "97,297": 575, "83,72": 576, "107,256": 577, "112,269": 578, "270,303": 579, "111,102": 580, "58,10": 581, "101,121": 582, "116,119": 583, "100,281": 584, "101,112": 585, "258,340": 586, "109,260": 587, "292,263": 588, "387,280": 589, "292,257": 590, "97,272": 591, "102,105": 592, "301,267": 593, "291,101": 594, "259,262": 595, "510,32": 596, "272,269": 597, "33,32": 598, "104,296": 599, "116,294": 600, "258,261": 601, "300,257": 602, "107,110": 603, "104,318": 604, "112,273": 605, "548,281": 606, "100,436": 607, "73,67": 608, "260,263": 609, "117,112": 610, "45,350": 611, "99,325": 612, "69,76": 613, "534,256": 614, "101,97": 615, "101,275": 616, "404,262": 617, "361,256": 618, "331,263": 619, "116,327": 620, "382,116": 621, "116,281": 622, "291,256": 623, "107,281": 624, "98,114": 625, "84,79": 626, "98,108": 627, "306,356": 628, "418,275": 629, "118,296": 630, "280,115": 631, "104,294": 632, "444,263": 633, "326,577": 634, "82,69": 635, "65,76": 636, "109,329": 637, "296,108": 638, "111,99": 639, "79,77": 640, "348,433": 641, "114,300": 642, "518,32": 643, "99,273": 644, "258,114": 645, "114,256": 646, "344,256": 647, "276,116": 648, "111,490": 649, "480,304": 650, "32,283": 651, "278,99": 652, "266,100": 653, "260,116": 654, "117,100": 655, "103,278": 656, "290,280": 657, "108,121": 658, "97,119": 659, "100,117": 660, "306,99": 661, "204,166": 662, "105,100": 663, "662,662": 664, "279,381": 665, "39,263": 666, "65,77": 667, "82,73": 668, "112,114": 669, "89,32": 670, "410,109": 671, "359,105": 672, "69,354": 673, "273,262": 674, "293,283": 675, "109,273": 676, "313,108": 677, "306,107": 678, "256,267": 679, "277,289": 680, "76,79": 681, "115,121": 682, "352,497": 683, "112,104": 684, "257,287": 685, "119,256": 686, "259,284": 687, "63,32": 688, "561,32": 689, "69,88": 690, "297,280": 691, "98,351": 692, "267,99": 693, "102,306": 694, "97,262": 695, "77,393": 696, "271,265": 697, "326,339": 698, "302,105": 699, "281,280": 700, "279,544": 701, "109,275": 702, "507,606": 703, "10,350": 704, "104,261": 705, "101,118": 706, "67,72": 707, "578,116": 708, "345,67": 709, "516,495": 710, "103,275": 711, "85,76": 712, "259,116": 713, "263,287": 714, "276,257": 715, "103,110": 716, "371,374": 717, "270,500": 718, "115,99": 719, "103,256": 720, "98,479": 721, "111,98": 722, "97,313": 723, "119,277": 724, "10,10": 725, "116,121": 726, "257,267": 727, "102,117": 728, "259,442": 729, "101,273": 730, "259,100": 731, "75,32": 732, "550,291": 733, "672,374": 734, "276,443": 735, "325,339": 736, "355,265": 737, "110,281": 738, "503,535": 739, "401,32": 740, "119,559": 741, "65,75": 742, "373,343": 743, "407,524": 744, "73,76": 745, "311,273": 746, "717,318": 747, "334,256": 748, "100,114": 749, "48,32": 750, "345,71": 751, "115,296": 752, "118,293": 753, "258,281": 754, "333,425": 755, "363,283": 756, "355,270": 757, "342,468": 758, "118,101": 759, "583,274": 760, "73,110": 761, "118,302": 762, "320,263": 763, "266,103": 764, "292,612": 765, "84,421": 766, "109,457": 767, "336,116": 768, "65,10": 769, "269,105": 770, "260,99": 771, "270,66": 772, "358,280": 773, "100,265": 774, "264,513": 775, "403,98": 776, "97,117": 777, "645,643": 778, "73,71": 779, "293,287": 780, "505,263": 781, "690,497": 782, "73,84": 783, "100,274": 784, "99,317": 785, "486,117": 786, "313,256": 787, "380,109": 788, "357,395": 789, "331,256": 790, "359,304": 791, "272,340": 792, "267,115": 793, "99,733": 794, "320,256": 795, "357,607": 796, "268,66": 797, "119,386": 798, "101,102": 799, "116,265": 800, "111,536": 801, "68,65": 802, "100,264": 803, "109,388": 804, "100,551": 805, "281,284": 806, "295,110": 807, "320,115": 808, "97,102": 809, "296,32": 810, "296,332": 811, "531,483": 812, "73,263": 813, "521,32": 814, "105,285": 815, "278,256": 816, "435,435": 817, "268,71": 818, "360,99": 819, "333,115": 820, "109,259": 821, "108,332": 822, "100,294": 823, "101,425": 824, "110,256": 825, "103,487": 826, "105,102": 827, "101,377": 828, "78,69": 829, "73,39": 830, "286,116": 831, "102,259": 832, "288,109": 833, "430,262": 834, "278,115": 835, "367,112": 836, "728,332": 837, "290,267": 838, "109,264": 839, "438,396": 840, "359,274": 841, "103,103": 842, "120,32": 843, "560,280": 844, "100,386": 845, "421,32": 846, "76,69": 847, "682,792": 848, "100,336": 849, "101,119": 850, "326,102": 851, "82,65": 852, "370,280": 853, "317,111": 854, "116,362": 855, "65,110": 856, "74,742": 857, "67,85": 858, "302,330": 859, "118,281": 860, "298,110": 861, "77,546": 862, "289,494": 863, "272,273": 864, "46,46": 865, "293,284": 866, "260,275": 867, "268,83": 868, "115,107": 869, "119,468": 870, "277,101": 871, "270,397": 872, "401,10": 873, "319,807": 874, "111,425": 875, "412,262": 876, "270,70": 877, "288,328": 878, "273,100": 879, "726,112": 880, "333,427": 881, "755,261": 882, "102,108": 883, "102,275": 884, "98,117": 885, "101,372": 886, "73,82": 887, "97,307": 888, "302,107": 889, "489,263": 890, "270,72": 891, "303,290": 892, "586,32": 893, "98,628": 894, "270,87": 895, "111,647": 896, "78,111": 897, "357,99": 898, "85,82": 899, "258,335": 900, "304,267": 901, "99,468": 902, "104,459": 903, "288,553": 904, "273,105": 905, "115,594": 906, "61,32": 907, "83,10": 908, "259,452": 909, "477,428": 910, "329,257": 911, "270,67": 912, "79,70": 913, "599,372": 914, "106,619": 915, "293,267": 916, "320,289": 917, "441,279": 918, "368,263": 919, "358,267": 920, "119,448": 921, "110,776": 922, "458,335": 923, "696,84": 924, "277,281": 925, "359,335": 926, "370,267": 927, "280,98": 928, "69,120": 929, "115,336": 930, "259,118": 931, "41,32": 932, "408,447": 933, "108,273": 934, "292,268": 935, "475,101": 936, "83,116": 937, "112,325": 938, "256,283": 939, "41,10": 940, "692,923": 941, "765,396": 942, "87,65": 943, "115,109": 944, "463,267": 945, "111,377": 946, "265,267": 947, "34,32": 948, "334,32": 949, "259,469": 950, "116,325": 951, "273,114": 952, "472,436": 953, "399,323": 954, "82,567": 955, "115,264": 956, "620,110": 957, "115,317": 958, "259,786": 959, "295,476": 960, "99,114": 961, "77,416": 962, "69,86": 963, "108,259": 964, "85,78": 965, "286,264": 966, "99,384": 967, "115,111": 968, "98,278": 969, "345,68": 970, "119,478": 971, "103,351": 972, "342,256": 973, "118,353": 974, "103,117": 975, "409,335": 976, "300,121": 977, "112,317": 978, "526,589": 979, "331,502": 980, "98,311": 981, "802,484": 982, "642,256": 983, "273,617": 984, "260,379": 985, "118,289": 986, "512,896": 987, "326,109": 988, "98,105": 989, "320,104": 990, "66,114": 991, "270,80": 992, "296,275": 993, "273,109": 994, "364,708": 995, "103,101": 996, "331,289": 997, "411,107": 998, "115,623": 999, "84,10": 1000, "112,257": 1001, "580,285": 1002, "67,421": 1003, "278,108": 1004, "344,306": 1005, "779,72": 1006, "112,298": 1007, "266,262": 1008, "271,268": 1009, "278,365": 1010, "346,540": 1011, "275,283": 1012, "99,269": 1013, "97,265": 1014, "79,76": 1015, "336,263": 1016, "106,111": 1017, "49,32": 1018, "67,104": 1019, "87,78": 1020, "117,257": 1021, "116,278": 1022, "441,365": 1023}, "vocab": {"0": "\u0000", "1": "\u0001", "2": "\u0002", "3": "\u0003", "4": "\u0004", "5": "\u0005", "6": "\u0006", "7": "\u0007", "8": "\b", "9": "\t", "10": "\n", "11": "\u000b", "12": "\f", "13": "\r", "14": "\u000e", "15": "\u000f", "16": "\u0010", "17": "\u0011", "18": "\u0012", "19": "\u0013", "20": "\u0014", "21": "\u0015", "22": "\u0016", "23": "\u0017", "24": "\u0018", "25": "\u0019", "26": "\u001a", "27": "\u001b", "28": "\u001c", "29": "\u001d", "30": "\u001e", "31": "\u001f", "32": " ", "33": "!", "34": "\"", "35": "#", "36": "$", "37": "%", "38": "&", "39": "'", "40": "(", "41": ")", "42": "*", "43": "+", "44": ",", "45": "-", "46": ".", "47": "/", "48": "0", "49": "1", "50": "2", "51": "3", "52": "4", "53": "5", "54": "6", "55": "7", "56": "8", "57": "9", "58": ":", "59": ";", "60": "<", "61": "=", "62": ">", "63": "?", "64": "@", "65": "A", "66": "B", "67": "C", "68": "D", "69": "E", "70": "F", "71": "G", "72": "H", "73": "I", "74": "J", "75": "K", "76": "L", "77": "M", "78": "N", "79": "O", "80": "P", "81": "Q", "82": "R", "83": "S", "84": "T", "85": "U", "86": "V", "87": "W", "88": "X", "89": "Y", "90": "Z", "91": "[", "92": "\\", "93": "]", "94": "^", "95": "_", "96": "`", "97": "a", "98": "b", "99": "c", "100": "d", "101": "e", "102": "f", "103": "g", "104": "h", "105": "i", "106": "j", "107": "k", "108": "l", "109": "m", "110": "n", "111": "o", "112": "p", "113": "q", "114": "r", "115": "s", "116": "t", "117": "u", "118": "v", "119": "w", "120": "x", "121": "y", "122": "z", "123": "{", "124": "|", "125": "}", "126": "~", "127": "\u007f", "128": "\u0080", "129": "\u0081", "130": "\u0082", "131": "\u0083", "132": "\u0084", "133": "\u0085", "134": "\u0086", "135": "\u0087", "136": "\u0088", "137": "\u0089", "138": "\u008a", "139": "\u008b", "140": "\u008c", "141": "\u008d", "142": "\u008e", "143": "\u008f", "144": "\u0090", "145": "\u0091", "146": "\u0092", "147": "\u0093", "148": "\u0094", "149": "\u0095", "150": "\u0096", "151": "\u0097", "152": "\u0098", "153": "\u0099", "154": "\u009a", "155": "\u009b", "156": "\u009c", "157": "\u009d", "158": "\u009e", "159": "\u009f", "160": "\u00a0", "161": "\u00a1", "162": "\u00a2", "163": "\u00a3", "164": "\u00a4", "165": "\u00a5", "166": "\u00a6", "167": "\u00a7", "168": "\u00a8", "169": "\u00a9", "170": "\u00aa", "171": "\u00ab", "172": "\u00ac", "173": "\u00ad", "174": "\u00ae", "175": "\u00af", "176": "\u00b0", "177": "\u00b1", "178": "\u00b2", "179": "\u00b3", "180": "\u00b4", "181": "\u00b5", "182": "\u00b6", "183": "\u00b7", "184": "\u00b8", "185": "\u00b9", "186": "\u00ba", "187": "\u00bb", "188": "\u00bc", "189": "\u00bd", "190": "\u00be", "191": "\u00bf", "192": "\u00c0", "193": "\u00c1", "194": "\u00c2", "195": "\u00c3", "196": "\u00c4", "197": "\u00c5", "198": "\u00c6", "199": "\u00c7", "200": "\u00c8", "201": "\u00c9", "202": "\u00ca", "203": "\u00cb", "204": "\u00cc", "205": "\u00cd", "206": "\u00ce", "207": "\u00cf", "208": "\u00d0", "209": "\u00d1", "210": "\u00d2", "211": "\u00d3", "212": "\u00d4", "213": "\u00d5", "214": "\u00d6", "215": "\u00d7", "216": "\u00d8", "217": "\u00d9", "218": "\u00da", "219": "\u00db", "220": "\u00dc", "221": "\u00dd", "222": "\u00de", "223": "\u00df", "224": "\u00e0", "225": "\u00e1", "226": "\u00e2", "227": "\u00e3", "228": "\u00e4", "229": "\u00e5", "230": "\u00e6", "231": "\u00e7", "232": "\u00e8", "233": "\u00e9", "234": "\u00ea", "235": "\u00eb", "236": "\u00ec", "237": "\u00ed", "238": "\u00ee", "239": "\u00ef", "240": "\u00f0", "241": "\u00f1", "242": "\u00f2", "243": "\u00f3", "244": "\u00f4", "245": "\u00f5", "246": "\u00f6", "247": "\u00f7", "248": "\u00f8", "249": "\u00f9", "250": "\u00fa", "251": "\u00fb", "252": "\u00fc", "253": "\u00fd", "254": "\u00fe", "255": "\u00ff", "256": "e ", "257": "s ", "258": "th", "259": "in", "260": "an", "261": "er", "262": "d ", "263": "t ", "264": "on", "265": ", ", "266": "en", "267": "the ", "268": ".\n", "269": "or", "270": ". ", "271": "ing", "272": "st", "273": "ar", "274": "o ", "275": "y ", "276": "ou", "277": "at", "278": "re", "279": "al", "280": "a ", "281": "ing ", "282": ": ", "283": "and ", "284": "to ", "285": "f ", "286": "si", "287": "of ", "288": "ti", "289": "ed ", "290": "is ", "291": "om", "292": "es", "293": "es ", "294": "er ", "295": "ch", "296": "el", "297": "in ", "298": "ow", "299": "t: ", "300": "it", "301": "on ", "302": "ic", "303": "Th", "304": "at ", "305": "ro", "306": "ac", "307": "ssi", "308": "ser", "309": "or ", "310": "an ", "311": "le", "312": "stan", "313": "il", "314": "  ", "315": "\nU", "316": "ssistan", "317": "ol", "318": "as ", "319": "te", "320": "as", "321": "Assistan", "322": "ser: ", "323": "Assistant: ", "324": "\nUser: ", "325": "ri", "326": "li", "327": "ur", "328": "ve ", "329": "ent", "330": "al ", "331": "us", "332": "l ", "333": "di", "334": "am", "335": "en ", "336": "ec", "337": "you", "338": "ati", "339": "gh", "340": "em", "341": "th ", "342": "sh", "343": "The ", "344": "pl", "345": ".\n\nUser: ", "346": "un", "347": "\u00e2\u0080", "348": "ab", "349": "wi", "350": "- ", "351": "et", "352": "IN", "353": "ir", "354": "S ", "355": "ed", "356": "k ", "357": "pro", "358": "for ", "359": "wh", "360": "lo", "361": "ag", "362": "ak", "363": "s, ", "364": "im", "365": "ad", "366": "E ", "367": "ap", "368": "\u00e2\u0080\u0099", "369": "I ", "370": "with ", "371": "su", "372": "p ", "373": ".\nAssistant: ", "374": "ch ", "375": "that ", "376": "de", "377": "ver", "378": "n ", "379": "ce ", "380": "com", "381": "ly ", "382": "con", "383": "are ", "384": "ul", "385": "e, ", "386": "ay", "387": "ate ", "388": "ent ", "389": "le ", "390": "op", "391": "tex", "392": "Con", "393": "AR", "394": "ex", "395": "vi", "396": "be ", "397": "A ", "398": "it ", "399": "?\n", "400": "se", "401": "ER", "402": "of the ", "403": "um", "404": "oun", "405": "you ", "406": "tr", "407": "ne", "408": "mo", "409": "be", "410": "for", "411": "wor", "412": "ha", "413": "Contex", "414": "sp", "415": "Context: ", "416": "AN", "417": "low", "418": "the", "419": "ut", "420": "in the ", "421": "ON", "422": "TH", "423": "'s ", "424": "fr", "425": "ff", "426": "s. ", "427": "tion", "428": "y, ", "429": "his ", "430": "oo", "431": "qu", "432": "T ", "433": "out ", "434": "om ", "435": "    ", "436": "uc", "437": "s and ", "438": "can ", "439": "ation", "440": "po", "441": "he", "442": "ter", "443": "r ", "444": "no", "445": "ld ", "446": "me", "447": "st ", "448": "ay ", "449": "OR", "450": "per", "451": ".\nContext: ", "452": "to the ", "453": "\nAssistant: ", "454": "--", "455": "ts ", "456": "ain", "457": "ake ", "458": "we", "459": "ow ", "460": "ation ", "461": ", and ", "462": "gr", "463": "from ", "464": "he ", "465": "was ", "466": "m ", "467": "ci", "468": "ould ", "469": "cre", "470": "ds ", "471": "e. ", "472": "str", "473": "ir ", "474": "se ", "475": "enc", "476": "ang", "477": "all", "478": "ere ", "479": "ut ", "480": "Wh", "481": "ar ", "482": "ST", "483": "ks ", "484": "Y\n", "485": "de ", "486": "cl", "487": "et ", "488": "E\n", "489": "igh", "490": "ther ", "491": "est", "492": "one ", "493": "all ", "494": "by ", "495": "ence ", "496": "\u00e2\u0080\u0099s ", "497": "T. ", "498": "pre", "499": "co", "500": "He ", "501": "s to ", "502": "ed to ", "503": "gi", "504": "!\n", "505": ". I", "506": "do", "507": "the f", "508": "s.\n", "509": "have ", "510": "ING", "511": "to", "512": "pe", "513": "g ", "514": "es, ", "515": "e.\n", "516": "sent", "517": "e of ", "518": "ough", "519": "up ", "520": "D ", "521": "him", "522": "enti", "523": "ess", "524": "w ", "525": "RO", "526": "ener", "527": "bo", "528": "ach", "529": "ic ", "530": "is", "531": "loo", "532": "comp", "533": "go", "534": "mor", "535": "ven ", "536": "ver ", "537": "your ", "538": "able ", "539": "av", "540": "der", "541": "fe", "542": "tion ", "543": "ing the ", "544": "so ", "545": "iz", "546": "art", "547": "our", "548": "ollow", "549": "this ", "550": "ust", "551": "own ", "552": "EN", "553": "me ", "554": "ine ", "555": "their ", "556": " - ", "557": "--\n", "558": "ure ", "559": "ill ", "560": "dat", "561": "You", "562": ". A", "563": ". S", "564": "and", "565": ". The ", "566": "THE ", "567": "AC", "568": "ure", "569": "AT", "570": "ers ", "571": "tic", "572": "\n\nUser: ", "573": "OU", "574": "ity ", "575": "ain ", "576": "SH", "577": "ke ", "578": "por", "579": ". Th", "580": "of", "581": ":\n", "582": "ey", "583": "tw", "584": "ding ", "585": "ep", "586": "them", "587": "man", "588": "est ", "589": "ate a ", "590": "ess ", "591": "ast", "592": "fi", "593": "on the ", "594": "ome", "595": "ind ", "596": "ING ", "597": "stor", "598": "! ", "599": "hel", "600": "ter ", "601": "ther", "602": "its ", "603": "kn", "604": "has ", "605": "par", "606": "ollowing ", "607": "duc", "608": "IC", "609": "ant ", "610": "up", "611": "-- ", "612": "cri", "613": "EL", "614": "more ", "615": "ea", "616": "ey ", "617": "ound ", "618": "age ", "619": "ust ", "620": "tur", "621": "cont", "622": "ting ", "623": "ome ", "624": "king ", "625": "br", "626": "TO", "627": "bl", "628": "ack ", "629": "they ", "630": "vel", "631": "a s", "632": "her ", "633": "not ", "634": "like ", "635": "RE", "636": "AL", "637": "ment", "638": "ell", "639": "oc", "640": "OM", "641": "about ", "642": "rit", "643": "ough ", "644": "car", "645": "thr", "646": "re ", "647": "ple ", "648": "out", "649": "other ", "650": "What ", "651": " and ", "652": "rec", "653": "end", "654": "ant", "655": "ud", "656": "gre", "657": "is a ", "658": "ly", "659": "aw", "660": "du", "661": "acc", "662": "\u00cc\u00a6", "663": "id", "664": "\u00cc\u00a6\u00cc\u00a6", "665": "ally ", "666": "'t ", "667": "AM", "668": "RI", "669": "pr", "670": "Y ", "671": "form", "672": "whi", "673": "ES ", "674": "ard ", "675": "es and ", "676": "mar", "677": "ill", "678": "ack", "679": "e the ", "680": "ated ", "681": "LO", "682": "sy", "683": "INT. ", "684": "ph", "685": "s of ", "686": "we ", "687": "into ", "688": "? ", "689": "You ", "690": "EX", "691": "in a ", "692": "bet", "693": "the c", "694": "fac", "695": "ad ", "696": "MAR", "697": "ing, ", "698": "ligh", "699": "ici", "700": "ing a ", "701": "also ", "702": "my ", "703": "the following ", "704": "\n- ", "705": "her", "706": "ev", "707": "CH", "708": "port", "709": ".\n\nUser: C", "710": "sentence ", "711": "gy ", "712": "UL", "713": "int", "714": "t of ", "715": "ous ", "716": "gn", "717": "such ", "718": ". He ", "719": "sc", "720": "ge ", "721": "but ", "722": "ob", "723": "ail", "724": "wat", "725": "\n\n", "726": "ty", "727": "s the ", "728": "fu", "729": "inter", "730": "ear", "731": "ind", "732": "K ", "733": "ustom", "734": "which ", "735": "our ", "736": "righ", "737": "ed, ", "738": "ning ", "739": "given ", "740": "ER ", "741": "will ", "742": "AK", "743": ".\nAssistant: The ", "744": "new ", "745": "IL", "746": "lear", "747": "such as ", "748": "ame ", "749": "dr", "750": "0 ", "751": ".\n\nUser: G", "752": "sel", "753": "ves ", "754": "thing ", "755": "diff", "756": "s, and ", "757": "ed. ", "758": "should ", "759": "ve", "760": "two ", "761": "In", "762": "vic", "763": "ast ", "764": "eng", "765": "escri", "766": "TON", "767": "make ", "768": "ect", "769": "A\n", "770": "ori", "771": "anc", "772": ". B", "773": "for a ", "774": "d, ", "775": "ong ", "776": "umb", "777": "au", "778": "through ", "779": "IG", "780": "es of ", "781": ". It ", "782": "EXT. ", "783": "IT", "784": "do ", "785": "col", "786": "clu", "787": "ile ", "788": "comm", "789": "provi", "790": "use ", "791": "what ", "792": "stem", "793": "the s", "794": "custom", "795": "ase ", "796": "produc", "797": ".\nB", "798": "way", "799": "ef", "800": "t, ", "801": "over ", "802": "DA", "803": "don", "804": "ment ", "805": "down ", "806": "ing to ", "807": "chn", "808": "ass", "809": "af", "810": "el ", "811": "ell ", "812": "looks ", "813": "It ", "814": "him ", "815": "if ", "816": "ree ", "817": "        ", "818": ".\nG", "819": "loc", "820": "dis", "821": "min", "822": "ll ", "823": "der ", "824": "eff", "825": "ne ", "826": "get ", "827": "if", "828": "ever", "829": "NE", "830": "I'", "831": "sit", "832": "fin", "833": "tim", "834": "ood ", "835": "res", "836": "app", "837": "ful ", "838": "is the ", "839": "mon", "840": "can be ", "841": "who ", "842": "gg", "843": "x ", "844": "data ", "845": "day", "846": "ON ", "847": "LE", "848": "system", "849": "dec", "850": "ew", "851": "lif", "852": "RA", "853": "with a ", "854": "olo", "855": "tak", "856": "An", "857": "JAK", "858": "CU", "859": "ical ", "860": "ving ", "861": "own", "862": "Mart", "863": "ed by ", "864": "star", "865": "..", "866": "es to ", "867": "any ", "868": ".\nS", "869": "sk", "870": "would ", "871": "ate", "872": ". A ", "873": "ER\n", "874": "techn", "875": "off", "876": "had ", "877": ". F", "878": "tive ", "879": "ard", "880": "typ", "881": "dition", "882": "differ", "883": "fl", "884": "fy ", "885": "bu", "886": "ep ", "887": "IR", "888": "assi", "889": "ick", "890": "ight ", "891": ". H", "892": "This ", "893": "them ", "894": "back ", "895": ". W", "896": "ople ", "897": "No", "898": "proc", "899": "UR", "900": "then ", "901": "at the ", "902": "could ", "903": "how ", "904": "time ", "905": "ari", "906": "some", "907": "= ", "908": "S\n", "909": "into the ", "910": "ally, ", "911": "ents ", "912": ". C", "913": "OF", "914": "help ", "915": "just ", "916": "es the ", "917": "ased ", "918": "heal", "919": "\u00e2\u0080\u0099t ", "920": "for the ", "921": "way ", "922": "numb", "923": "ween ", "924": "MART", "925": "ating ", "926": "when ", "927": "with the ", "928": "a b", "929": "Ex", "930": "sec", "931": "inv", "932": ") ", "933": "most ", "934": "lar", "935": "es.\n", "936": "ence", "937": "St", "938": "pri", "939": "e and ", "940": ")\n", "941": "between ", "942": "escribe ", "943": "WA", "944": "sm", "945": "from the ", "946": "over", "947": ", the ", "948": "\" ", "949": "am ", "950": "incre", "951": "tri", "952": "arr", "953": "struc", "954": "?\nAssistant: ", "955": "RAC", "956": "son", "957": "turn", "958": "sol", "959": "inclu", "960": "chang", "961": "cr", "962": "MAN", "963": "EV", "964": "lin", "965": "UN", "966": "sion", "967": "cul", "968": "so", "969": "bre", "970": ".\n\nUser: D", "971": "were ", "972": "get", "973": "she ", "974": "vir", "975": "gu", "976": "been ", "977": "ity", "978": "pol", "979": "enerate a ", "980": "used to ", "981": "ble", "982": "DAY\n", "983": "rite ", "984": "around ", "985": "ance ", "986": "ved ", "987": "people ", "988": "lim", "989": "bi", "990": "ash", "991": "Br", "992": ". P", "993": "ely ", "994": "arm", "995": "import", "996": "ge", "997": "used ", "998": "work", "999": "some ", "1000": "T\n", "1001": "ps ", "1002": "off ", "1003": "CON", "1004": "rel", "1005": "plac", "1006": "IGH", "1007": "pow", "1008": "end ", "1009": "ing.\n", "1010": "read", "1011": "under", "1012": "y and ", "1013": "cor", "1014": "a, ", "1015": "OL", "1016": "ect ", "1017": "jo", "1018": "1 ", "1019": "Ch", "1020": "WN", "1021": "us ", "1022": "tre", "1023": "head"}}