{"merges": {"101,32": 256, "97,110": 257, "32,116": 258, "105,110": 259, "101,114": 260, "115,32": 261, "111,110": 262, "100,32": 263, "116,32": 264, "101,110": 265, "104,256": 266, "58,32": 267, "115,116": 268, "111,114": 269, "97,116": 270, "114,101": 271, "44,32": 272, "259,103": 273, "258,266": 274, "46,10": 275, "97,108": 276, "115,105": 277, "97,32": 278, "97,114": 279, "111,32": 280, "46,32": 281, "257,263": 282, "105,116": 283, "121,32": 284, "111,117": 285, "111,102": 286, "273,32": 287, "116,267": 288, "101,115": 289, "105,99": 290, "115,277": 291, "115,260": 292, "111,109": 293, "105,262": 294, "268,257": 295, "258,280": 296, "291,295": 297, "286,32": 298, "10,85": 299, "297,288": 300, "292,267": 301, "299,301": 302, "65,300": 303, "97,99": 304, "104,97": 305, "101,108": 306, "256,116": 307, "114,111": 308, "105,261": 309, "104,32": 310, "101,99": 311, "275,302": 312, "265,116": 313, "101,120": 314, "101,263": 315, "260,32": 316, "101,261": 317, "102,269": 318, "112,108": 319, "105,115": 320, "105,108": 321, "105,118": 322, "257,32": 323, "101,116": 324, "108,111": 325, "258,104": 326, "259,32": 327, "101,100": 328, "97,115": 329, "276,32": 330, "117,114": 331, "101,109": 332, "111,108": 333, "112,308": 334, "117,115": 335, "105,109": 336, "275,303": 337, "270,294": 338, "117,116": 339, "97,109": 340, "305,264": 341, "117,99": 342, "262,116": 343, "99,293": 344, "97,98": 345, "265,32": 346, "256,278": 347, "117,110": 348, "10,303": 349, "119,283": 350, "111,119": 351, "84,266": 352, "318,32": 353, "105,114": 354, "108,101": 355, "97,103": 356, "265,99": 357, "105,102": 358, "97,261": 359, "105,100": 360, "117,108": 361, "111,116": 362, "99,104": 363, "112,32": 364, "276,108": 365, "97,100": 366, "307,266": 367, "105,103": 368, "115,104": 369, "262,32": 370, "115,272": 371, "343,314": 372, "119,269": 373, "265,264": 374, "259,116": 375, "67,372": 376, "105,264": 377, "285,114": 378, "376,288": 379, "73,32": 380, "117,109": 381, "350,310": 382, "100,101": 383, "257,100": 384, "107,32": 385, "99,262": 386, "118,260": 387, "119,104": 388, "97,107": 389, "114,105": 390, "97,112": 391, "99,323": 392, "279,256": 393, "115,112": 394, "113,117": 395, "304,116": 396, "311,116": 397, "111,112": 398, "108,256": 399, "269,32": 400, "110,101": 401, "271,270": 402, "325,119": 403, "272,282": 404, "261,282": 405, "275,379": 406, "97,121": 407, "286,274": 408, "115,281": 409, "108,263": 410, "110,32": 411, "115,101": 412, "258,341": 413, "112,260": 414, "111,100": 415, "116,104": 416, "118,256": 417, "268,114": 418, "98,256": 419, "32,109": 420, "259,274": 421, "322,256": 422, "285,110": 423, "338,32": 424, "285,410": 425, "112,114": 426, "112,111": 427, "289,115": 428, "258,111": 429, "104,101": 430, "100,342": 431, "257,103": 432, "98,101": 433, "101,272": 434, "368,104": 435, "271,115": 436, "99,108": 437, "256,298": 438, "111,99": 439, "105,122": 440, "102,114": 441, "45,32": 442, "321,108": 443, "294,32": 444, "119,101": 445, "101,268": 446, "104,309": 447, "265,260": 448, "108,284": 449, "306,108": 450, "100,105": 451, "271,99": 452, "344,109": 453, "121,285": 454, "270,256": 455, "114,97": 456, "101,102": 457, "307,280": 458, "281,73": 459, "115,117": 460, "326,101": 461, "265,100": 462, "63,349": 463, "121,272": 464, "328,296": 465, "115,313": 466, "262,256": 467, "269,116": 468, "110,111": 469, "285,116": 470, "100,270": 471, "10,302": 472, "104,316": 473, "378,32": 474, "118,105": 475, "102,333": 476, "101,119": 477, "119,359": 478, "115,296": 479, "261,298": 480, "279,116": 481, "257,116": 482, "466,357": 483, "441,293": 484, "109,111": 485, "117,100": 486, "103,114": 487, "101,281": 488, "290,32": 489, "108,105": 490, "354,32": 491, "256,282": 492, "318,109": 493, "476,403": 494, "117,268": 495, "87,341": 496, "257,99": 497, "101,118": 498, "312,67": 499, "344,112": 500, "289,272": 501, "104,260": 502, "98,284": 503, "114,283": 504, "259,100": 505, "325,103": 506, "111,111": 507, "58,10": 508, "351,32": 509, "109,269": 510, "454,32": 511, "334,118": 512, "273,274": 513, "115,342": 514, "105,330": 515, "115,280": 516, "32,298": 517, "112,101": 518, "101,364": 519, "103,322": 520, "264,298": 521, "281,65": 522, "100,260": 523, "98,108": 524, "116,260": 525, "279,32": 526, "102,260": 527, "109,97": 528, "345,399": 529, "98,117": 530, "268,269": 531, "277,116": 532, "331,256": 533, "259,256": 534, "402,347": 535, "115,256": 536, "325,99": 537, "10,442": 538, "319,256": 539, "289,264": 540, "334,431": 541, "226,128": 542, "97,264": 543, "115,264": 544, "369,425": 545, "104,306": 546, "99,390": 547, "10,32": 548, "494,287": 549, "319,257": 550, "117,271": 551, "97,118": 552, "258,114": 553, "259,99": 554, "39,261": 555, "355,279": 556, "101,112": 557, "304,104": 558, "109,389": 559, "109,313": 560, "118,306": 561, "105,317": 562, "304,99": 563, "401,119": 564, "97,321": 565, "283,284": 566, "259,339": 567, "312,71": 568, "365,32": 569, "117,112": 570, "65,32": 571, "99,343": 572, "283,121": 573, "99,111": 574, "115,121": 575, "337,352": 576, "285,264": 577, "108,121": 578, "32,309": 579, "112,271": 580, "350,104": 581, "98,324": 582, "102,101": 583, "281,84": 584, "119,407": 585, "356,256": 586, "373,100": 587, "110,287": 588, "510,256": 589, "320,274": 590, "285,103": 591, "49,48": 592, "484,32": 593, "276,516": 594, "290,330": 595, "32,282": 596, "461,491": 597, "112,468": 598, "121,474": 599, "311,104": 600, "514,310": 601, "281,83": 602, "386,99": 603, "287,278": 604, "429,274": 605, "97,284": 606, "375,260": 607, "495,293": 608, "373,107": 609, "311,264": 610, "100,358": 611, "101,264": 612, "262,103": 613, "512,360": 614, "289,547": 615, "353,278": 616, "443,32": 617, "101,103": 618, "10,10": 619, "97,268": 620, "305,261": 621, "289,261": 622, "101,267": 623, "345,108": 624, "101,312": 625, "100,320": 626, "111,98": 627, "119,280": 628, "115,99": 629, "109,101": 630, "281,352": 631, "97,271": 632, "435,116": 633, "99,402": 634, "116,294": 635, "99,608": 636, "73,110": 637, "283,294": 638, "258,336": 639, "361,116": 640, "305,417": 641, "601,359": 642, "115,312": 643, "98,114": 644, "115,119": 645, "326,309": 646, "105,112": 647, "459,264": 648, "309,278": 649, "277,262": 650, "520,346": 651, "418,342": 652, "277,103": 653, "116,316": 654, "65,110": 655, "271,329": 656, "102,361": 657, "265,103": 658, "260,261": 659, "117,364": 660, "109,257": 661, "327,278": 662, "44,274": 663, "121,112": 664, "283,261": 665, "332,32": 666, "420,567": 667, "490,107": 668, "362,473": 669, "97,259": 670, "102,290": 671, "97,339": 672, "44,326": 673, "292,118": 674, "108,320": 675, "118,354": 676, "112,104": 677, "259,437": 678, "426,396": 679, "262,274": 680, "537,107": 681, "365,284": 682, "109,279": 683, "271,116": 684, "334,99": 685, "279,103": 686, "392,419": 687, "37,517": 688, "471,278": 689, "103,111": 690, "371,282": 691, "290,310": 692, "45,45": 693, "281,67": 694, "105,289": 695, "101,519": 696, "475,477": 697, "321,256": 698, "435,264": 699, "448,270": 700, "61,32": 701, "102,259": 702, "121,274": 703, "382,278": 704, "115,333": 705, "98,681": 706, "279,105": 707, "564,32": 708, "100,311": 709, "611,527": 710, "332,313": 711, "103,271": 712, "273,272": 713, "121,416": 714, "307,104": 715, "101,279": 716, "97,327": 717, "678,486": 718, "99,333": 719, "279,100": 720, "112,279": 721, "102,108": 722, "109,32": 723, "119,617": 724, "99,310": 725, "48,667": 726, "269,264": 727, "317,282": 728, "317,298": 729, "314,264": 730, "351,260": 731, "275,10": 732, "110,381": 733, "388,692": 734, "575,268": 735, "304,107": 736, "423,116": 737, "105,268": 738, "363,432": 739, "335,315": 740, "115,293": 741, "483,256": 742, "105,357": 743, "304,310": 744, "257,264": 745, "679,290": 746, "384,274": 747, "115,109": 748, "260,256": 749, "258,600": 750, "109,374": 751, "83,116": 752, "314,340": 753, "277,109": 754, "271,431": 755, "285,261": 756, "318,274": 757, "348,32": 758, "10,379": 759, "335,256": 760, "270,315": 761, "117,261": 762, "281,72": 763, "313,358": 764, "100,111": 765, "259,118": 766, "98,329": 767, "69,120": 768, "286,116": 769, "100,638": 770, "115,274": 771, "349,352": 772, "469,264": 773, "112,270": 774, "448,103": 775, "97,291": 776, "102,105": 777, "591,104": 778, "340,256": 779, "546,364": 780, "115,331": 781, "97,102": 782, "115,306": 783, "50,48": 784, "271,108": 785, "112,117": 786, "258,389": 787, "603,320": 788, "84,447": 789, "271,256": 790, "290,107": 791, "279,264": 792, "109,415": 793, "115,311": 794, "101,337": 795, "700,347": 796, "100,114": 797, "518,111": 798, "115,413": 799, "112,436": 800, "101,329": 801, "32,99": 802, "615,98": 803, "582,445": 804, "287,282": 805, "375,280": 806, "329,115": 807, "329,107": 808, "373,385": 809, "461,284": 810, "314,414": 811, "487,340": 812, "119,425": 813, "469,506": 814, "118,276": 815, "305,263": 816, "335,287": 817, "115,337": 818, "268,270": 819, "284,282": 820, "109,328": 821, "673,346": 822, "115,107": 823, "541,116": 824, "733,98": 825, "97,258": 826, "257,284": 827, "335,465": 828, "119,270": 829, "102,439": 830, "273,296": 831, "324,104": 832, "108,259": 833, "378,99": 834, "112,339": 835, "423,100": 836, "102,32": 837, "345,577": 838, "108,534": 839, "345,321": 840, "554,656": 841, "336,598": 842, "307,341": 843, "83,104": 844, "696,377": 845, "581,274": 846, "652,116": 847, "676,262": 848, "391,319": 849, "115,324": 850, "283,104": 851, "111,387": 852, "304,385": 853, "108,358": 854, "115,381": 855, "80,308": 856, "120,32": 857, "261,393": 858, "314,116": 859, "49,281": 860, "507,263": 861, "746,276": 862, "270,274": 863, "290,256": 864, "636,316": 865, "107,110": 866, "116,310": 867, "358,290": 868, "726,317": 869, "500,339": 870, "117,292": 871, "308,119": 872, "339,294": 873, "645,316": 874, "276,403": 875, "111,103": 876, "365,464": 877, "277,100": 878, "117,103": 879, "265,848": 880, "101,45": 881, "258,628": 882, "102,397": 883, "430,276": 884, "276,121": 885, "481,290": 886, "111,121": 887, "87,504": 888, "109,259": 889, "423,263": 890, "451,452": 891, "559,256": 892, "97,119": 893, "456,259": 894, "75,845": 895, "895,862": 896, "351,411": 897, "271,394": 898, "331,330": 899, "41,32": 900, "284,298": 901, "304,264": 902, "348,523": 903, "445,98": 904, "102,354": 905, "268,486": 906, "735,332": 907, "67,104": 908, "99,425": 909, "453,384": 910, "312,68": 911, "305,118": 912, "106,397": 913, "108,100": 914, "329,264": 915, "101,387": 916, "100,280": 917, "485,544": 918, "271,395": 919, "118,707": 920, "79,110": 921, "112,333": 922, "110,270": 923, "432,117": 924, "450,32": 925, "499,535": 926, "281,70": 927, "73,264": 928, "358,32": 929, "388,280": 930, "109,270": 931, "568,796": 932, "48,48": 933, "344,319": 934, "100,324": 935, "66,256": 936, "99,279": 937, "98,311": 938, "366,118": 939, "295,100": 940, "753,319": 941, "357,256": 942, "50,32": 943, "101,406": 944, "383,561": 945, "289,296": 946, "112,116": 947, "550,296": 948, "99,97": 949, "102,390": 950, "322,260": 951, "84,114": 952, "275,50": 953, "99,331": 954, "103,257": 955, "97,263": 956, "936,788": 957, "326,114": 958, "471,97": 959, "306,32": 960, "496,309": 961, "768,319": 962, "414,115": 963, "98,362": 964, "546,112": 965, "80,714": 966, "332,374": 967, "281,10": 968, "655,874": 969, "103,269": 970, "101,744": 971, "119,504": 972, "542,153": 973, "279,284": 974, "108,924": 975, "412,279": 976, "118,316": 977, "530,264": 978, "339,444": 979, "275,51": 980, "306,284": 981, "319,304": 982, "320,460": 983, "98,335": 984, "65,380": 985, "484,274": 986, "289,274": 987, "259,493": 988, "556,588": 989, "291,262": 990, "100,407": 991, "396,294": 992, "100,770": 993, "970,851": 994, "755,256": 995, "314,319": 996, "117,330": 997, "290,338": 998, "105,276": 999, "369,727": 1000, "103,324": 1001, "101,121": 1002, "72,509": 1003, "277,99": 1004, "108,686": 1005, "111,274": 1006, "685,428": 1007, "307,447": 1008, "261,327": 1009, "470,274": 1010, "328,274": 1011, "99,269": 1012, "433,346": 1013, "811,743": 1014, "270,116": 1015, "388,698": 1016, "104,381": 1017, "422,109": 1018, "750,814": 1019, "276,994": 1020, "950,462": 1021, "388,346": 1022, "115,267": 1023, "675,521": 1024, "111,107": 1025, "270,618": 1026, "279,109": 1027, "271,366": 1028, "394,101": 1029, "821,105": 1030, "430,284": 1031, "108,32": 1032, "115,439": 1033, "754,539": 1034, "256,309": 1035, "653,110": 1036, "110,730": 1037, "102,321": 1038, "105,364": 1039, "269,955": 1040, "98,399": 1041, "334,812": 1042, "121,296": 1043, "898,262": 1044, "888,347": 1045, "334,417": 1046, "945,398": 1047, "507,107": 1048, "279,114": 1049, "52,281": 1050, "84,104": 1051, "340,32": 1052, "269,523": 1053, "112,331": 1054, "110,324": 1055, "355,366": 1056, "591,310": 1057, "281,380": 1058, "109,284": 1059, "326,332": 1060, "394,311": 1061, "336,1046": 1062, "105,374": 1063, "279,396": 1064, "775,284": 1065, "112,362": 1066, "335,264": 1067, "87,104": 1068, "265,274": 1069, "803,367": 1070, "453,348": 1071, "984,259": 1072, "657,32": 1073, "102,304": 1074, "257,885": 1075, "114,320": 1076, "271,697": 1077, "457,671": 1078, "97,375": 1079, "80,731": 1080, "44,10": 1081, "99,257": 1082, "583,270": 1083, "884,416": 1084, "99,737": 1085, "313,515": 1086, "530,321": 1087, "427,115": 1088, "34,32": 1089, "748,569": 1090, "261,353": 1091, "289,312": 1092, "457,883": 1093, "108,613": 1094, "98,260": 1095, "74,111": 1096, "767,315": 1097, "116,336": 1098, "440,256": 1099, "85,110": 1100, "293,256": 1101, "396,322": 1102, "383,519": 1103, "585,296": 1104, "710,374": 1105, "99,391": 1106, "271,103": 1107, "263,278": 1108, "98,339": 1109, "320,104": 1110, "114,290": 1111, "514,99": 1112, "328,272": 1113, "69,110": 1114, "108,322": 1115, "82,101": 1116, "391,104": 1117, "319,407": 1118, "1080,844": 1119, "105,313": 1120, "102,348": 1121, "106,610": 1122, "769,119": 1123, "281,68": 1124, "804,346": 1125, "85,115": 1126, "674,290": 1127, "104,435": 1128, "53,32": 1129, "102,111": 1130, "336,512": 1131, "258,664": 1132, "112,112": 1133, "786,264": 1134, "110,362": 1135, "270,367": 1136, "115,111": 1137, "360,101": 1138, "49,57": 1139, "406,352": 1140, "392,594": 1141, "880,560": 1142, "110,340": 1143, "116,287": 1144, "105,263": 1145, "314,112": 1146, "105,271": 1147, "124,32": 1148, "269,100": 1149, "98,111": 1150, "683,107": 1151, "668,256": 1152, "395,276": 1153, "279,263": 1154, "109,260": 1155, "105,395": 1156, "10,50": 1157, "395,791": 1158, "798,539": 1159, "373,914": 1160, "993,877": 1161, "101,284": 1162, "99,305": 1163, "326,320": 1164, "98,271": 1165, "553,257": 1166, "709,105": 1167, "587,409": 1168, "361,526": 1169, "558,534": 1170, "265,457": 1171, "334,524": 1172, "351,110": 1173, "260,115": 1174, "265,263": 1175, "111,364": 1176, "630,257": 1177, "67,535": 1178, "103,32": 1179, "496,590": 1180, "672,293": 1181, "72,256": 1182, "450,368": 1183, "119,256": 1184, "869,948": 1185, "584,447": 1186, "327,1034": 1187, "48,32": 1188, "109,262": 1189, "363,1064": 1190, "969,1187": 1191, "1191,1168": 1192, "260,272": 1193, "783,102": 1194, "104,378": 1195, "82,311": 1196, "453,282": 1197, "718,256": 1198, "815,117": 1199, "394,397": 1200, "102,422": 1201, "261,408": 1202, "315,503": 1203, "281,66": 1204, "268,557": 1205, "102,340": 1206, "262,293": 1207, "65,114": 1208, "99,415": 1209, "73,116": 1210, "70,269": 1211, "116,321": 1212, "401,328": 1213, "283,562": 1214, "10,51": 1215, "389,256": 1216, "333,118": 1217, "427,532": 1218, "459,110": 1219, "100,290": 1220, "1020,109": 1221, "265,115": 1222, "97,272": 1223, "121,716": 1224, "373,263": 1225, "115,834": 1226, "334,116": 1227, "115,266": 1228, "273,258": 1229, "329,274": 1230, "568,322": 1231, "395,446": 1232, "298,278": 1233, "99,355": 1234, "119,341": 1235, "270,422": 1236, "528,327": 1237, "830,762": 1238, "329,256": 1239, "101,404": 1240, "98,306": 1241, "424,282": 1242, "976,725": 1243, "1096,104": 1244, "99,260": 1245, "360,764": 1246, "963,262": 1247, "825,316": 1248, "258,446": 1249, "362,502": 1250, "114,432": 1251, "386,277": 1252, "115,1123": 1253, "675,264": 1254, "270,287": 1255, "98,1171": 1256, "112,731": 1257, "438,278": 1258, "957,488": 1259, "314,311": 1260, "102,396": 1261, "903,940": 1262, "891,116": 1263, "369,509": 1264, "614,256": 1265, "261,421": 1266, "470,344": 1267, "741,256": 1268, "954,114": 1269, "556,110": 1270, "904,532": 1271, "338,272": 1272, "306,397": 1273, "97,277": 1274, "391,334": 1275, "624,458": 1276, "322,360": 1277, "383,112": 1278, "112,398": 1279, "281,80": 1280, "261,278": 1281, "118,320": 1282, "531,284": 1283, "53,688": 1284, "868,515": 1285, "401,465": 1286, "502,256": 1287, "283,332": 1288, "104,384": 1289, "109,428": 1290, "966,370": 1291, "65,108": 1292, "101,107": 1293, "100,764": 1294, "602,116": 1295, "440,367": 1296, "45,109": 1297, "345,1010": 1298, "99,256": 1299, "490,268": 1300, "414,493": 1301, "114,348": 1302, "259,264": 1303, "289,256": 1304, "83,266": 1305, "497,256": 1306, "104,509": 1307, "313,261": 1308, "1167,650": 1309, "102,565": 1310, "315,282": 1311, "1172,332": 1312, "257,336": 1313, "87,256": 1314, "78,340": 1315, "49,50": 1316, "259,107": 1317, "794,331": 1318, "271,109": 1319, "391,112": 1320, "404,278": 1321, "98,736": 1322, "505,274": 1323, "693,693": 1324, "290,385": 1325, "114,758": 1326, "336,112": 1327, "112,319": 1328, "100,331": 1329, "257,121": 1330, "684,331": 1331, "460,98": 1332, "73,1294": 1333, "281,71": 1334, "110,280": 1335, "99,535": 1336, "355,561": 1337, "108,633": 1338, "386,110": 1339, "463,352": 1340, "381,32": 1341, "49,32": 1342, "365,121": 1343, "433,318": 1344, "478,278": 1345, "798,319": 1346, "104,351": 1347, "847,533": 1348, "316,282": 1349, "290,682": 1350, "840,573": 1351, "283,315": 1352, "103,448": 1353, "283,695": 1354, "264,278": 1355, "100,306": 1356, "653,411": 1357, "750,110": 1358, "369,468": 1359, "582,654": 1360, "485,118": 1361, "338,330": 1362, "119,482": 1363, "545,419": 1364, "115,276": 1365, "1238,370": 1366, "104,116": 1367, "105,32": 1368, "325,115": 1369, "320,264": 1370, "525,110": 1371, "258,101": 1372, "427,291": 1373, "377,309": 1374, "345,355": 1375, "204,166": 1376, "281,496": 1377, "258,808": 1378, "360,256": 1379, "39,264": 1380, "100,439": 1381, "1033,515": 1382, "109,366": 1383, "363,111": 1384, "1376,1376": 1385, "97,421": 1386, "1126,1008": 1387, "958,778": 1388, "370,278": 1389, "541,264": 1390, "1206,321": 1391, "973,261": 1392, "63,32": 1393, "277,122": 1394, "719,108": 1395, "356,114": 1396, "427,375": 1397, "259,268": 1398, "104,111": 1399, "99,372": 1400, "766,1217": 1401, "375,1183": 1402, "271,340": 1403, "103,103": 1404, "289,413": 1405, "277,370": 1406, "289,404": 1407, "97,120": 1408, "793,306": 1409, "98,105": 1410, "276,99": 1411, "101,395": 1412, "273,261": 1413, "1200,322": 1414, "387,116": 1415, "281,77": 1416, "70,114": 1417, "424,298": 1418, "426,293": 1419, "67,293": 1420, "363,311": 1421, "563,331": 1422, "436,640": 1423, "369,1039": 1424, "414,270": 1425, "1232,294": 1426, "426,286": 1427, "311,1207": 1428, "923,899": 1429, "964,310": 1430, "108,336": 1431, "99,329": 1432, "289,337": 1433, "325,1025": 1434, "328,342": 1435, "556,411": 1436, "117,276": 1437, "325,98": 1438, "59,32": 1439, "51,32": 1440, "260,109": 1441, "115,305": 1442, "528,284": 1443, "477,504": 1444, "462,315": 1445, "457,361": 1446, "436,834": 1447, "333,100": 1448, "319,887": 1449, "285,115": 1450, "326,323": 1451, "97,639": 1452, "769,346": 1453, "328,103": 1454, "116,444": 1455, "105,756": 1456, "312,83": 1457, "312,896": 1458, "308,108": 1459, "97,354": 1460, "661,284": 1461, "905,544": 1462, "321,100": 1463, "276,107": 1464, "119,749": 1465, "98,321": 1466, "787,256": 1467, "1411,361": 1468, "112,807": 1469, "849,998": 1470, "97,491": 1471, "293,32": 1472, "82,1444": 1473, "101,349": 1474, "109,1170": 1475, "48,688": 1476, "384,258": 1477, "95,95": 1478, "259,263": 1479, "661,356": 1480, "105,498": 1481, "114,265": 1482, "1260,979": 1483, "348,1212": 1484, "262,839": 1485, "261,382": 1486, "975,586": 1487, "115,348": 1488, "507,385": 1489, "792,382": 1490, "68,101": 1491, "879,103": 1492, "103,377": 1493, "351,108": 1494, "10,84": 1495, "381,313": 1496, "115,97": 1497, "274,549": 1498, "98,540": 1499, "433,287": 1500, "103,872": 1501, "842,745": 1502, "112,390": 1503, "115,406": 1504, "613,32": 1505, "111,118": 1506, "261,642": 1507, "550,588": 1508, "100,606": 1509, "1269,374": 1510, "279,367": 1511, "117,682": 1512, "82,758": 1513, "317,327": 1514, "705,873": 1515, "315,382": 1516, "309,323": 1517, "274,1037": 1518, "763,256": 1519, "98,259": 1520, "314,99": 1521, "283,256": 1522, "645,260": 1523, "261,392": 1524, "1066,1086": 1525, "121,337": 1526, "275,1050": 1527, "440,315": 1528, "1005,256": 1529, "116,114": 1530, "259,101": 1531, "278,1000": 1532, "369,647": 1533, "271,276": 1534, "332,1425": 1535, "287,327": 1536, "962,717": 1537, "98,703": 1538, "1348,353": 1539, "943,1195": 1540, "99,114": 1541, "567,256": 1542, "910,296": 1543, "317,393": 1544, "477,32": 1545, "10,53": 1546, "261,400": 1547, "876,110": 1548, "996,269": 1549, "279,107": 1550, "580,1220": 1551, "774,1371": 1552, "258,456": 1553, "104,105": 1554, "260,114": 1555, "634,256": 1556, "383,118": 1557, "306,711": 1558, "776,102": 1559, "1119,450": 1560, "115,108": 1561, "106,887": 1562, "1297,1542": 1563, "98,1048": 1564, "412,264": 1565, "108,915": 1566, "470,835": 1567, "99,632": 1568, "359,278": 1569, "109,324": 1570, "975,356": 1571, "283,464": 1572, "106,627": 1573, "112,481": 1574, "315,327": 1575, "1151,324": 1576, "1072,428": 1577, "850,570": 1578, "1244,411": 1579, "326,790": 1580, "545,380": 1581, "949,335": 1582, "117,256": 1583, "326,863": 1584, "97,297": 1585, "312,961": 1586, "289,650": 1587, "445,1293": 1588, "391,116": 1589, "1339,397": 1590, "367,549": 1591, "559,287": 1592, "283,444": 1593, "102,339": 1594, "409,65": 1595, "109,105": 1596, "508,32": 1597, "706,272": 1598, "592,1563": 1599, "684,308": 1600, "307,430": 1601, "934,324": 1602, "921,256": 1603, "1083,551": 1604, "1071,290": 1605, "1508,1598": 1606, "1606,1483": 1607, "1607,706": 1608, "1608,1321": 1609, "1609,1599": 1610, "1610,1600": 1611, "1611,1414": 1612, "320,109": 1613, "260,889": 1614, "270,328": 1615, "373,410": 1616, "687,828": 1617, "800,313": 1618, "409,352": 1619, "1253,393": 1620, "398,112": 1621, "499,293": 1622, "366,100": 1623, "118,101": 1624, "1211,1518": 1625, "1366,467": 1626, "1626,1267": 1627, "1627,623": 1628, "1490,1578": 1629, "1629,822": 1630, "1630,467": 1631, "1631,1103": 1632, "1632,809": 1633, "1633,706": 1634, "1634,822": 1635, "1635,1532": 1636, "1636,1077": 1637, "433,672": 1638, "269,284": 1639, "1112,428": 1640, "317,278": 1641, "426,375": 1642, "361,279": 1643, "823,443": 1644, "563,428": 1645, "258,894": 1646, "119,925": 1647, "293,109": 1648, "105,324": 1649, "271,355": 1650, "103,612": 1651, "677,114": 1652, "627,913": 1653, "257,107": 1654, "735,666": 1655, "273,404": 1656, "437,336": 1657, "777,120": 1658, "110,262": 1659, "886,399": 1660, "1121,99": 1661, "832,415": 1662, "271,263": 1663, "77,284": 1664, "922,108": 1665, "104,336": 1666, "485,475": 1667, "100,615": 1668, "603,557": 1669, "1438,330": 1670, "99,378": 1671, "108,324": 1672, "109,256": 1673, "262,100": 1674, "690,276": 1675, "481,1285": 1676, "383,1036": 1677, "116,997": 1678, "505,1277": 1679, "578,267": 1680, "938,97": 1681, "326,666": 1682, "100,117": 1683, "121,378": 1684, "114,270": 1685, "109,276": 1686, "104,285": 1687, "315,278": 1688, "1601,491": 1689, "33,32": 1690, "112,351": 1691, "355,103": 1692, "919,1147": 1693, "842,482": 1694, "52,32": 1695, "829,316": 1696, "430,366": 1697, "102,861": 1698, "702,263": 1699, "815,360": 1700, "103,402": 1701, "786,524": 1702, "498,313": 1703, "506,32": 1704, "118,333": 1705, "870,316": 1706, "566,282": 1707, "305,1133": 1708, "326,270": 1709, "104,121": 1710, "452,1548": 1711, "98,853": 1712, "272,380": 1713, "386,387": 1714, "43,32": 1715, "891,264": 1716, "271,100": 1717, "33,472": 1718, "409,928": 1719, "398,290": 1720, "286,102": 1721, "115,275": 1722, "911,1070": 1723, "841,256": 1724, "89,285": 1725, "260,296": 1726, "1012,452": 1727, "583,306": 1728, "338,261": 1729, "392,380": 1730, "332,1449": 1731, "871,32": 1732, "429,1001": 1733, "257,1523": 1734, "312,1192": 1735, "262,449": 1736, "542,157": 1737, "1196,1648": 1738, "271,451": 1739, "103,861": 1740, "268,481": 1741, "1078,1063": 1742, "542,156": 1743, "962,1386": 1744, "319,270": 1745, "274,116": 1746, "377,327": 1747, "321,32": 1748, "104,293": 1749, "1278,462": 1750, "522,1161": 1751, "98,415": 1752, "281,69": 1753, "333,263": 1754, "106,111": 1755, "273,337": 1756, "277,417": 1757, "319,323": 1758, "630,329": 1759, "256,353": 1760, "284,115": 1761, "499,262": 1762, "326,346": 1763, "677,121": 1764, "856,118": 1765, "934,314": 1766, "117,418": 1767, "108,97": 1768, "103,117": 1769, "912,347": 1770, "73,39": 1771, "307,1006": 1772, "270,322": 1773, "71,324": 1774, "1017,257": 1775, "264,282": 1776, "105,501": 1777, "712,543": 1778, "383,530": 1779, "878,256": 1780, "1055,609": 1781, "403,32": 1782, "359,1647": 1783, "418,1026": 1784, "99,313": 1785, "334,1122": 1786, "108,699": 1787, "614,347": 1788, "259,835": 1789, "49,56": 1790, "287,353": 1791, "112,393": 1792, "398,1098": 1793, "487,285": 1794, "283,330": 1795, "1018,367": 1796, "719,269": 1797, "1256,283": 1798, "939,482": 1799, "320,296": 1800, "119,329": 1801, "111,977": 1802, "1764,1004": 1803, "456,102": 1804, "387,98": 1805, "332,105": 1806, "388,749": 1807, "332,565": 1808, "286,527": 1809, "65,100": 1810, "336,319": 1811, "119,450": 1812, "103,265": 1813, "1053,296": 1814, "880,751": 1815, "611,671": 1816, "676,1678": 1817, "1040,440": 1818, "528,259": 1819, "797,322": 1820, "1421,107": 1821, "358,284": 1822, "283,296": 1823, "1313,276": 1824, "118,618": 1825, "325,118": 1826, "483,944": 1827, "520,265": 1828, "119,606": 1829, "10,789": 1830, "600,814": 1831, "312,1045": 1832, "346,278": 1833, "477,529": 1834, "375,1006": 1835, "99,393": 1836, "305,475": 1837, "60,47": 1838, "115,273": 1839, "108,384": 1840, "320,310": 1841, "101,1274": 1842, "1252,268": 1843, "958,1057": 1844, "648,309": 1845, "1331,411": 1846, "793,960": 1847, "110,311": 1848, "343,104": 1849, "741,832": 1850, "116,272": 1851, "308,115": 1852, "121,1164": 1853, "1026,269": 1854, "381,683": 1855, "108,289": 1856, "1017,323": 1857, "508,860": 1858, "640,105": 1859, "103,279": 1860, "572,259": 1861, "337,1387": 1862, "78,779": 1863, "101,275": 1864, "99,556": 1865, "331,416": 1866, "260,99": 1867, "721,1396": 1868, "98,283": 1869, "718,287": 1870, "354,256": 1871, "401,977": 1872, "585,261": 1873, "574,383": 1874, "100,368": 1875, "598,348": 1876, "1681,760": 1877, "904,32": 1878, "394,468": 1879, "766,446": 1880, "1799,356": 1881, "70,1323": 1882, "394,304": 1883, "480,278": 1884, "1100,1352": 1885, "412,395": 1886, "952,1853": 1887, "1887,508": 1888, "866,897": 1889, "73,411": 1890, "49,53": 1891, "1738,1445": 1892, "1892,910": 1893, "1893,508": 1894, "1513,1747": 1895, "65,411": 1896, "109,362": 1897, "437,285": 1898, "392,780": 1899, "1540,261": 1900, "966,262": 1901, "574,387": 1902, "119,1027": 1903, "806,278": 1904, "1245,116": 1905, "398,1876": 1906, "99,340": 1907, "117,451": 1908, "329,385": 1909, "1165,389": 1910, "112,886": 1911, "320,256": 1912, "307,336": 1913, "402,256": 1914, "98,354": 1915, "67,262": 1916, "49,47": 1917, "658,356": 1918, "705,118": 1919, "108,464": 1920, "81,117": 1921, "685,622": 1922, "697,32": 1923, "112,105": 1924, "336,356": 1925, "103,1670": 1926, "1774,45": 1927, "337,571": 1928, "337,1625": 1929, "1295,1637": 1930, "988,424": 1931, "590,1716": 1932, "63,10": 1933, "104,269": 1934, "281,619": 1935, "110,260": 1936, "44,258": 1937, "626,99": 1938, "629,265": 1939, "65,73": 1940, "574,268": 1941, "636,260": 1942, "99,270": 1943, "472,71": 1944, "658,416": 1945, "369,351": 1946, "100,332": 1947, "85,412": 1948, "1948,508": 1949, "341,1932": 1950, "1950,1104": 1951, "114,366": 1952, "286,258": 1953, "307,111": 1954, "1197,1581": 1955, "1955,1326": 1956, "1956,327": 1957, "1830,545": 1958, "763,509": 1959, "10,1895": 1960, "112,324": 1961, "118,265": 1962, "101,257": 1963, "957,623": 1964, "1030,278": 1965, "1019,284": 1966, "1329,287": 1967, "108,345": 1968, "99,640": 1969, "107,696": 1970, "119,111": 1971, "621,278": 1972, "433,1837": 1973, "115,552": 1974, "785,338": 1975, "380,1082": 1976, "459,411": 1977, "115,110": 1978, "45,116": 1979, "112,391": 1980, "277,261": 1981, "1381,1496": 1982, "289,112": 1983, "386,418": 1984, "380,1052": 1985, "1333,703": 1986, "265,624": 1987, "108,407": 1988, "1190,260": 1989, "726,501": 1990, "869,1539": 1991, "1495,1951": 1992, "97,387": 1993, "1676,1402": 1994, "522,100": 1995, "335,438": 1996, "98,121": 1997, "287,298": 1998, "322,573": 1999, "102,610": 2000, "1984,1079": 2001, "85,83": 2002, "271,712": 2003, "360,100": 2004, "335,513": 2005, "634,422": 2006, "455,739": 2007, "1848,428": 2008, "350,363": 2009, "118,313": 2010, "1990,1628": 2011, "652,635": 2012, "365,658": 2013, "361,264": 2014, "111,536": 2015, "488,352": 2016, "112,316": 2017, "551,272": 2018, "268,260": 2019, "313,449": 2020, "62,548": 2021, "935,1614": 2022, "102,890": 2023, "108,622": 2024, "107,1162": 2025, "281,87": 2026, "318,116": 2027, "312,1259": 2028, "722,117": 2029, "448,455": 2030, "854,256": 2031, "97,122": 2032, "498,346": 2033, "1146,397": 2034, "581,577": 2035, "77,111": 2036, "111,264": 2037, "115,779": 2038, "112,97": 2039, "584,1031": 2040, "102,271": 2041, "565,269": 2042, "260,999": 2043, "753,539": 2044, "63,472": 2045, "259,385": 2046, "412,387": 2047}, "vocab": {"0": "\u0000", "1": "\u0001", "2": "\u0002", "3": "\u0003", "4": "\u0004", "5": "\u0005", "6": "\u0006", "7": "\u0007", "8": "\b", "9": "\t", "10": "\n", "11": "\u000b", "12": "\f", "13": "\r", "14": "\u000e", "15": "\u000f", "16": "\u0010", "17": "\u0011", "18": "\u0012", "19": "\u0013", "20": "\u0014", "21": "\u0015", "22": "\u0016", "23": "\u0017", "24": "\u0018", "25": "\u0019", "26": "\u001a", "27": "\u001b", "28": "\u001c", "29": "\u001d", "30": "\u001e", "31": "\u001f", "32": " ", "33": "!", "34": "\"", "35": "#", "36": "$", "37": "%", "38": "&", "39": "'", "40": "(", "41": ")", "42": "*", "43": "+", "44": ",", "45": "-", "46": ".", "47": "/", "48": "0", "49": "1", "50": "2", "51": "3", "52": "4", "53": "5", "54": "6", "55": "7", "56": "8", "57": "9", "58": ":", "59": ";", "60": "<", "61": "=", "62": ">", "63": "?", "64": "@", "65": "A", "66": "B", "67": "C", "68": "D", "69": "E", "70": "F", "71": "G", "72": "H", "73": "I", "74": "J", "75": "K", "76": "L", "77": "M", "78": "N", "79": "O", "80": "P", "81": "Q", "82": "R", "83": "S", "84": "T", "85": "U", "86": "V", "87": "W", "88": "X", "89": "Y", "90": "Z", "91": "[", "92": "\\", "93": "]", "94": "^", "95": "_", "96": "`", "97": "a", "98": "b", "99": "c", "100": "d", "101": "e", "102": "f", "103": "g", "104": "h", "105": "i", "106": "j", "107": "k", "108": "l", "109": "m", "110": "n", "111": "o", "112": "p", "113": "q", "114": "r", "115": "s", "116": "t", "117": "u", "118": "v", "119": "w", "120": "x", "121": "y", "122": "z", "123": "{", "124": "|", "125": "}", "126": "~", "127": "\u007f", "128": "\u0080", "129": "\u0081", "130": "\u0082", "131": "\u0083", "132": "\u0084", "133": "\u0085", "134": "\u0086", "135": "\u0087", "136": "\u0088", "137": "\u0089", "138": "\u008a", "139": "\u008b", "140": "\u008c", "141": "\u008d", "142": "\u008e", "143": "\u008f", "144": "\u0090", "145": "\u0091", "146": "\u0092", "147": "\u0093", "148": "\u0094", "149": "\u0095", "150": "\u0096", "151": "\u0097", "152": "\u0098", "153": "\u0099", "154": "\u009a", "155": "\u009b", "156": "\u009c", "157": "\u009d", "158": "\u009e", "159": "\u009f", "160": "\u00a0", "161": "\u00a1", "162": "\u00a2", "163": "\u00a3", "164": "\u00a4", "165": "\u00a5", "166": "\u00a6", "167": "\u00a7", "168": "\u00a8", "169": "\u00a9", "170": "\u00aa", "171": "\u00ab", "172": "\u00ac", "173": "\u00ad", "174": "\u00ae", "175": "\u00af", "176": "\u00b0", "177": "\u00b1", "178": "\u00b2", "179": "\u00b3", "180": "\u00b4", "181": "\u00b5", "182": "\u00b6", "183": "\u00b7", "184": "\u00b8", "185": "\u00b9", "186": "\u00ba", "187": "\u00bb", "188": "\u00bc", "189": "\u00bd", "190": "\u00be", "191": "\u00bf", "192": "\u00c0", "193": "\u00c1", "194": "\u00c2", "195": "\u00c3", "196": "\u00c4", "197": "\u00c5", "198": "\u00c6", "199": "\u00c7", "200": "\u00c8", "201": "\u00c9", "202": "\u00ca", "203": "\u00cb", "204": "\u00cc", "205": "\u00cd", "206": "\u00ce", "207": "\u00cf", "208": "\u00d0", "209": "\u00d1", "210": "\u00d2", "211": "\u00d3", "212": "\u00d4", "213": "\u00d5", "214": "\u00d6", "215": "\u00d7", "216": "\u00d8", "217": "\u00d9", "218": "\u00da", "219": "\u00db", "220": "\u00dc", "221": "\u00dd", "222": "\u00de", "223": "\u00df", "224": "\u00e0", "225": "\u00e1", "226": "\u00e2", "227": "\u00e3", "228": "\u00e4", "229": "\u00e5", "230": "\u00e6", "231": "\u00e7", "232": "\u00e8", "233": "\u00e9", "234": "\u00ea", "235": "\u00eb", "236": "\u00ec", "237": "\u00ed", "238": "\u00ee", "239": "\u00ef", "240": "\u00f0", "241": "\u00f1", "242": "\u00f2", "243": "\u00f3", "244": "\u00f4", "245": "\u00f5", "246": "\u00f6", "247": "\u00f7", "248": "\u00f8", "249": "\u00f9", "250": "\u00fa", "251": "\u00fb", "252": "\u00fc", "253": "\u00fd", "254": "\u00fe", "255": "\u00ff", "256": "e ", "257": "an", "258": " t", "259": "in", "260": "er", "261": "s ", "262": "on", "263": "d ", "264": "t ", "265": "en", "266": "he ", "267": ": ", "268": "st", "269": "or", "270": "at", "271": "re", "272": ", ", "273": "ing", "274": " the ", "275": ".\n", "276": "al", "277": "si", "278": "a ", "279": "ar", "280": "o ", "281": ". ", "282": "and ", "283": "it", "284": "y ", "285": "ou", "286": "of", "287": "ing ", "288": "t: ", "289": "es", "290": "ic", "291": "ssi", "292": "ser", "293": "om", "294": "ion", "295": "stan", "296": " to ", "297": "ssistan", "298": "of ", "299": "\nU", "300": "ssistant: ", "301": "ser: ", "302": "\nUser: ", "303": "Assistant: ", "304": "ac", "305": "ha", "306": "el", "307": "e t", "308": "ro", "309": "is ", "310": "h ", "311": "ec", "312": ".\n\nUser: ", "313": "ent", "314": "ex", "315": "ed ", "316": "er ", "317": "es ", "318": "for", "319": "pl", "320": "is", "321": "il", "322": "iv", "323": "an ", "324": "et", "325": "lo", "326": " th", "327": "in ", "328": "ed", "329": "as", "330": "al ", "331": "ur", "332": "em", "333": "ol", "334": "pro", "335": "us", "336": "im", "337": ".\nAssistant: ", "338": "ation", "339": "ut", "340": "am", "341": "hat ", "342": "uc", "343": "ont", "344": "com", "345": "ab", "346": "en ", "347": "e a ", "348": "un", "349": "\nAssistant: ", "350": "wit", "351": "ow", "352": "The ", "353": "for ", "354": "ir", "355": "le", "356": "ag", "357": "enc", "358": "if", "359": "as ", "360": "id", "361": "ul", "362": "ot", "363": "ch", "364": "p ", "365": "all", "366": "ad", "367": "e the ", "368": "ig", "369": "sh", "370": "on ", "371": "s, ", "372": "ontex", "373": "wor", "374": "ent ", "375": "int", "376": "Contex", "377": "it ", "378": "our", "379": "Context: ", "380": "I ", "381": "um", "382": "with ", "383": "de", "384": "and", "385": "k ", "386": "con", "387": "ver", "388": "wh", "389": "ak", "390": "ri", "391": "ap", "392": "can ", "393": "are ", "394": "sp", "395": "qu", "396": "act", "397": "ect", "398": "op", "399": "le ", "400": "or ", "401": "ne", "402": "reat", "403": "low", "404": ", and ", "405": "s and ", "406": ".\nContext: ", "407": "ay", "408": "of the ", "409": "s. ", "410": "ld ", "411": "n ", "412": "se", "413": " that ", "414": "per", "415": "od", "416": "th", "417": "ve ", "418": "str", "419": "be ", "420": " m", "421": "in the ", "422": "ive ", "423": "oun", "424": "ation ", "425": "ould ", "426": "pr", "427": "po", "428": "ess", "429": " to", "430": "he", "431": "duc", "432": "ang", "433": "be", "434": "e, ", "435": "igh", "436": "res", "437": "cl", "438": "e of ", "439": "oc", "440": "iz", "441": "fr", "442": "- ", "443": "ill", "444": "ion ", "445": "we", "446": "est", "447": "his ", "448": "ener", "449": "ly ", "450": "ell", "451": "di", "452": "rec", "453": "comm", "454": "you", "455": "ate ", "456": "ra", "457": "ef", "458": "e to ", "459": ". I", "460": "su", "461": " the", "462": "end", "463": "?\nAssistant: ", "464": "y, ", "465": "ed to ", "466": "sent", "467": "one ", "468": "ort", "469": "no", "470": "out", "471": "dat", "472": "\n\nUser: ", "473": "her ", "474": "our ", "475": "vi", "476": "fol", "477": "ew", "478": "was ", "479": "s to ", "480": "s of ", "481": "art", "482": "ant", "483": "sentenc", "484": "from", "485": "mo", "486": "ud", "487": "gr", "488": "e. ", "489": "ic ", "490": "li", "491": "ir ", "492": "e and ", "493": "form", "494": "follow", "495": "ust", "496": "What ", "497": "anc", "498": "ev", "499": ".\n\nUser: C", "500": "comp", "501": "es, ", "502": "her", "503": "by ", "504": "rit", "505": "ind", "506": "log", "507": "oo", "508": ":\n", "509": "ow ", "510": "mor", "511": "you ", "512": "prov", "513": "ing the ", "514": "suc", "515": "ial ", "516": "so ", "517": " of ", "518": "pe", "519": "ep ", "520": "giv", "521": "t of ", "522": ". A", "523": "der", "524": "bl", "525": "ter", "526": "ar ", "527": "fer", "528": "ma", "529": "able ", "530": "bu", "531": "stor", "532": "sit", "533": "ure ", "534": "ine ", "535": "reate a ", "536": "se ", "537": "loc", "538": "\n- ", "539": "ple ", "540": "est ", "541": "produc", "542": "\u00e2\u0080", "543": "at ", "544": "st ", "545": "should ", "546": "hel", "547": "cri", "548": "\n ", "549": "following ", "550": "plan", "551": "ure", "552": "av", "553": " tr", "554": "inc", "555": "'s ", "556": "lear", "557": "ep", "558": "ach", "559": "mak", "560": "ment", "561": "vel", "562": "ies ", "563": "acc", "564": "new", "565": "ail", "566": "ity ", "567": "inut", "568": ".\n\nUser: G", "569": "all ", "570": "up", "571": "A ", "572": "cont", "573": "ity", "574": "co", "575": "sy", "576": ".\nAssistant: The ", "577": "out ", "578": "ly", "579": " is ", "580": "pre", "581": "with", "582": "bet", "583": "fe", "584": ". T", "585": "way", "586": "age ", "587": "word", "588": "ning ", "589": "more ", "590": "is the ", "591": "oug", "592": "10", "593": "from ", "594": "also ", "595": "ical ", "596": " and ", "597": " their ", "598": "port", "599": "your ", "600": "ech", "601": "such ", "602": ". S", "603": "conc", "604": "ing a ", "605": " to the ", "606": "ay ", "607": "inter", "608": "ustom", "609": "work", "610": "ect ", "611": "dif", "612": "et ", "613": "ong", "614": "provid", "615": "escri", "616": "for a ", "617": "ill ", "618": "eg", "619": "\n\n", "620": "ast", "621": "has ", "622": "ess ", "623": "e: ", "624": "abl", "625": "e.\n\nUser: ", "626": "dis", "627": "ob", "628": "wo ", "629": "sc", "630": "me", "631": ". The ", "632": "are", "633": "ight", "634": "creat", "635": "tion", "636": "custom", "637": "In", "638": "ition", "639": " tim", "640": "ult", "641": "have ", "642": "such as ", "643": "s.\n\nUser: ", "644": "br", "645": "sw", "646": " this ", "647": "ip", "648": ". It ", "649": "is a ", "650": "sion", "651": "given ", "652": "struc", "653": "sig", "654": "ter ", "655": "An", "656": "reas", "657": "ful", "658": "eng", "659": "ers ", "660": "up ", "661": "man", "662": "in a ", "663": ", the ", "664": "yp", "665": "its ", "666": "em ", "667": " minut", "668": "lik", "669": "other ", "670": "ain", "671": "fic", "672": "aut", "673": ", th", "674": "serv", "675": "lis", "676": "vir", "677": "ph", "678": "incl", "679": "pract", "680": "on the ", "681": "lock", "682": "ally ", "683": "mar", "684": "ret", "685": "proc", "686": "arg", "687": "can be ", "688": "% of ", "689": "data ", "690": "go", "691": "s, and ", "692": "ich ", "693": "--", "694": ". C", "695": "ies", "696": "eep ", "697": "view", "698": "ile ", "699": "ight ", "700": "enerat", "701": "= ", "702": "fin", "703": "y the ", "704": "with a ", "705": "sol", "706": "block", "707": "ari", "708": "new ", "709": "dec", "710": "differ", "711": "ement", "712": "gre", "713": "ing, ", "714": "yth", "715": "e th", "716": "ear", "717": "ain ", "718": "includ", "719": "col", "720": "ard", "721": "par", "722": "fl", "723": "m ", "724": "will ", "725": "ch ", "726": "0 minut", "727": "ort ", "728": "es and ", "729": "es of ", "730": "ext ", "731": "ower", "732": ".\n\n", "733": "num", "734": "which ", "735": "syst", "736": "ack", "737": "ount", "738": "ist", "739": "chang", "740": "used ", "741": "som", "742": "sentence ", "743": "ienc", "744": "ach ", "745": "ant ", "746": "practic", "747": "and the ", "748": "sm", "749": "ere ", "750": " tech", "751": "ment ", "752": "St", "753": "exam", "754": "sim", "755": "reduc", "756": "ous ", "757": "for the ", "758": "un ", "759": "\nContext: ", "760": "use ", "761": "ated ", "762": "us ", "763": ". H", "764": "entif", "765": "do", "766": "inv", "767": "bas", "768": "Ex", "769": "oft", "770": "dition", "771": "s the ", "772": "\nAssistant: The ", "773": "not ", "774": "pat", "775": "energ", "776": "assi", "777": "fi", "778": "ough", "779": "ame ", "780": "help ", "781": "sur", "782": "af", "783": "sel", "784": "20", "785": "rel", "786": "pu", "787": " tak", "788": "concis", "789": "This ", "790": "ree ", "791": "ick", "792": "art ", "793": "mod", "794": "sec", "795": "e.\nAssistant: ", "796": "enerate a ", "797": "dr", "798": "peo", "799": "s that ", "800": "pres", "801": "eas", "802": " c", "803": "escrib", "804": "betwe", "805": "ing and ", "806": "into ", "807": "ass", "808": "ask", "809": "work ", "810": " they ", "811": "exper", "812": "gram", "813": "would ", "814": "nolog", "815": "val", "816": "had ", "817": "using ", "818": "s.\nAssistant: ", "819": "stat", "820": "y and ", "821": "med", "822": ", then ", "823": "sk", "824": "product", "825": "numb", "826": "a t", "827": "any ", "828": "used to ", "829": "wat", "830": "foc", "831": "ing to ", "832": "eth", "833": "lin", "834": "ourc", "835": "put", "836": "ound", "837": "f ", "838": "about ", "839": "line ", "840": "abil", "841": "increas", "842": "import", "843": "e that ", "844": "Sh", "845": "eep it ", "846": "with the ", "847": "struct", "848": "viron", "849": "appl", "850": "set", "851": "ith", "852": "over", "853": "ack ", "854": "lif", "855": "sum", "856": "Pro", "857": "x ", "858": "s are ", "859": "ext", "860": "1. ", "861": "ood ", "862": "practical", "863": "at the ", "864": "ice ", "865": "customer ", "866": "kn", "867": "th ", "868": "ific", "869": "0 minutes ", "870": "comput", "871": "user", "872": "row", "873": "ution", "874": "swer ", "875": "allow", "876": "og", "877": "ally, ", "878": "sid", "879": "ug", "880": "environ", "881": "e-", "882": " two ", "883": "fect", "884": "heal", "885": "aly", "886": "artic", "887": "oy", "888": "Writ", "889": "min", "890": "ound ", "891": "direc", "892": "make ", "893": "aw", "894": "rain", "895": "Keep it ", "896": "Keep it practical", "897": "own ", "898": "resp", "899": "ural ", "900": ") ", "901": "y of ", "902": "act ", "903": "under", "904": "web", "905": "fir", "906": "stud", "907": "system", "908": "Ch", "909": "could ", "910": "command", "911": ".\n\nUser: D", "912": "hav", "913": "ject", "914": "ld", "915": "ast ", "916": "ever", "917": "do ", "918": "most ", "919": "requ", "920": "vari", "921": "On", "922": "pol", "923": "nat", "924": "angu", "925": "ell ", "926": ".\n\nUser: Create a ", "927": ". F", "928": "It ", "929": "if ", "930": "who ", "931": "mat", "932": ".\n\nUser: Generate a ", "933": "00", "934": "compl", "935": "det", "936": "Be ", "937": "car", "938": "bec", "939": "adv", "940": "stand", "941": "exampl", "942": "ence ", "943": "2 ", "944": "e.\nContext: ", "945": "devel", "946": "es to ", "947": "pt", "948": "plan to ", "949": "ca", "950": "fri", "951": "iver", "952": "Tr", "953": ".\n2", "954": "cur", "955": "gan", "956": "ad ", "957": "Be concis", "958": " thr", "959": "data", "960": "el ", "961": "What is ", "962": "Expl", "963": "pers", "964": "bot", "965": "help", "966": "Pyth", "967": "ement ", "968": ". \n", "969": "Answer ", "970": "gor", "971": "each ", "972": "writ", "973": "\u00e2\u0080\u0099", "974": "ary ", "975": "langu", "976": "sear", "977": "ver ", "978": "but ", "979": "ution ", "980": ".\n3", "981": "ely ", "982": "plac", "983": "issu", "984": "bus", "985": "AI ", "986": "from the ", "987": "es the ", "988": "inform", "989": "learning ", "990": "ssion", "991": "day", "992": "action", "993": "ddition", "994": "gorith", "995": "reduce ", "996": "expl", "997": "ual ", "998": "ication", "999": "ial", "1000": "short ", "1001": "get", "1002": "ey", "1003": "How ", "1004": "sic", "1005": "larg", "1006": "o the ", "1007": "process", "1008": "e this ", "1009": "s in ", "1010": "out the ", "1011": "ed the ", "1012": "cor", "1013": "been ", "1014": "experienc", "1015": "att", "1016": "while ", "1017": "hum", "1018": "ive m", "1019": " technolog", "1020": "algorith", "1021": "friend", "1022": "when ", "1023": "s: ", "1024": "list of ", "1025": "ok", "1026": "ateg", "1027": "arm", "1028": "read", "1029": "spe", "1030": "medi", "1031": "hey ", "1032": "l ", "1033": "soc", "1034": "simple ", "1035": "e is ", "1036": "sign", "1037": "next ", "1038": "fil", "1039": "ip ", "1040": "organ", "1041": "ble ", "1042": "program", "1043": "y to ", "1044": "respon", "1045": "Write a ", "1046": "prove ", "1047": "develop", "1048": "ook", "1049": "arr", "1050": "4. ", "1051": "Th", "1052": "am ", "1053": "order", "1054": "pur", "1055": "net", "1056": "lead", "1057": "ough ", "1058": ". I ", "1059": "my ", "1060": " them", "1061": "spec", "1062": "improve ", "1063": "ient ", "1064": "aract", "1065": "energy ", "1066": "pot", "1067": "ust ", "1068": "Wh", "1069": "en the ", "1070": "escribe the ", "1071": "commun", "1072": "busin", "1073": "ful ", "1074": "fac", "1075": "analy", "1076": "ris", "1077": "review", "1078": "effic", "1079": "aint", "1080": "Power", "1081": ",\n", "1082": "can", "1083": "feat", "1084": "health", "1085": "count", "1086": "ential ", "1087": "buil", "1088": "pos", "1089": "\" ", "1090": "small ", "1091": "s for ", "1092": "es.\n\nUser: ", "1093": "effect", "1094": "long", "1095": "ber", "1096": "Jo", "1097": "based ", "1098": "tim", "1099": "ize ", "1100": "Un", "1101": "ome ", "1102": "activ", "1103": "deep ", "1104": "way to ", "1105": "different ", "1106": "cap", "1107": "reg", "1108": "d a ", "1109": "but", "1110": "ish", "1111": "ric", "1112": "succ", "1113": "ed, ", "1114": "En", "1115": "liv", "1116": "Re", "1117": "aph", "1118": "play", "1119": "PowerSh", "1120": "ient", "1121": "fun", "1122": "ject ", "1123": "oftw", "1124": ". D", "1125": "between ", "1126": "Us", "1127": "servic", "1128": "high", "1129": "5 ", "1130": "fo", "1131": "improv", "1132": " typ", "1133": "pp", "1134": "put ", "1135": "not", "1136": "ate the ", "1137": "so", "1138": "ide", "1139": "19", "1140": ".\nContext: The ", "1141": "can also ", "1142": "environment", "1143": "nam", "1144": "ting ", "1145": "id ", "1146": "exp", "1147": "ire", "1148": "| ", "1149": "ord", "1150": "bo", "1151": "mark", "1152": "like ", "1153": "qual", "1154": "ard ", "1155": "mer", "1156": "iqu", "1157": "\n2", "1158": "quick", "1159": "people ", "1160": "world", "1161": "dditionally, ", "1162": "ey ", "1163": "cha", "1164": " this", "1165": "bre", "1166": " tran", "1167": "deci", "1168": "words. ", "1169": "ular ", "1170": "achine ", "1171": "enef", "1172": "probl", "1173": "own", "1174": "ers", "1175": "end ", "1176": "op ", "1177": "mean", "1178": "Create a ", "1179": "g ", "1180": "What is the ", "1181": "autom", "1182": "He ", "1183": "ellig", "1184": "we ", "1185": "0 minutes plan to ", "1186": ". This ", "1187": "in simple ", "1188": "0 ", "1189": "mon", "1190": "charact", "1191": "Answer in simple ", "1192": "Answer in simple words. ", "1193": "er, ", "1194": "self", "1195": "hour", "1196": "Rec", "1197": "command ", "1198": "include ", "1199": "valu", "1200": "spect", "1201": "five ", "1202": "s of the ", "1203": "ed by ", "1204": ". B", "1205": "step", "1206": "fam", "1207": "onom", "1208": "Ar", "1209": "cod", "1210": "It", "1211": "For", "1212": "til", "1213": "need", "1214": "ities ", "1215": "\n3", "1216": "ake ", "1217": "olv", "1218": "posit", "1219": ". In", "1220": "dic", "1221": "algorithm", "1222": "ens", "1223": "a, ", "1224": "year", "1225": "word ", "1226": "sourc", "1227": "prot", "1228": "she ", "1229": "ing t", "1230": "as the ", "1231": ".\n\nUser: Giv", "1232": "quest", "1233": "of a ", "1234": "cle", "1235": "what ", "1236": "ative ", "1237": "main ", "1238": "focus ", "1239": "ase ", "1240": "e, and ", "1241": "bel", "1242": "ation and ", "1243": "search ", "1244": "Joh", "1245": "cer", "1246": "identif", "1247": "person", "1248": "number ", "1249": " test", "1250": "other", "1251": "rang", "1252": "consi", "1253": "softw", "1254": "list ", "1255": "ating ", "1256": "benef", "1257": "power", "1258": "e of a ", "1259": "Be concise. ", "1260": "exec", "1261": "fact", "1262": "understand", "1263": "direct", "1264": "show ", "1265": "provide ", "1266": "s in the ", "1267": "outcom", "1268": "some ", "1269": "curr", "1270": "learn", "1271": "websit", "1272": "ation, ", "1273": "elect", "1274": "asi", "1275": "appro", "1276": "able to ", "1277": "ivid", "1278": "dep", "1279": "pop", "1280": ". P", "1281": "s a ", "1282": "vis", "1283": "story ", "1284": "5% of ", "1285": "ificial ", "1286": "need to ", "1287": "here ", "1288": "item", "1289": "hand", "1290": "mess", "1291": "Python ", "1292": "Al", "1293": "ek", "1294": "dentif", "1295": ". St", "1296": "ize the ", "1297": "-m", "1298": "about the ", "1299": "ce ", "1300": "list", "1301": "perform", "1302": "run", "1303": "int ", "1304": "ese ", "1305": "She ", "1306": "ance ", "1307": "how ", "1308": "ents ", "1309": "decision", "1310": "fail", "1311": "ed and ", "1312": "problem", "1313": "anim", "1314": "We ", "1315": "Nam", "1316": "12", "1317": "ink", "1318": "secur", "1319": "rem", "1320": "app", "1321": ", and a ", "1322": "back", "1323": "ind the ", "1324": "----", "1325": "ick ", "1326": "run ", "1327": "imp", "1328": "ppl", "1329": "dur", "1330": "any", "1331": "retur", "1332": "sub", "1333": "Identif", "1334": ". G", "1335": "no ", "1336": "create a ", "1337": "level", "1338": "light", "1339": "conn", "1340": "?\nAssistant: The ", "1341": "um ", "1342": "1 ", "1343": "ally", "1344": "befor", "1345": "was a ", "1346": "peopl", "1347": "how", "1348": "structure ", "1349": "er and ", "1350": "ically ", "1351": "ability", "1352": "ited ", "1353": "gener", "1354": "ities", "1355": "t a ", "1356": "del", "1357": "sign ", "1358": " techn", "1359": "short", "1360": "better ", "1361": "mov", "1362": "ational ", "1363": "want", "1364": "should be ", "1365": "sal", "1366": "focus on ", "1367": "ht", "1368": "i ", "1369": "los", "1370": "ist ", "1371": "tern", "1372": " te", "1373": "possi", "1374": "it is ", "1375": "able", "1376": "\u00cc\u00a6", "1377": ". What ", "1378": " task", "1379": "ide ", "1380": "'t ", "1381": "doc", "1382": "social ", "1383": "mad", "1384": "cho", "1385": "\u00cc\u00a6\u00cc\u00a6", "1386": "ain the ", "1387": "Use this ", "1388": " through", "1389": "on a ", "1390": "product ", "1391": "famil", "1392": "\u00e2\u0080\u0099s ", "1393": "? ", "1394": "siz", "1395": "coll", "1396": "agr", "1397": "point", "1398": "inst", "1399": "ho", "1400": "contex", "1401": "involv", "1402": "intellig", "1403": "ream", "1404": "gg", "1405": "es that ", "1406": "sion ", "1407": "es, and ", "1408": "ax", "1409": "model", "1410": "bi", "1411": "alc", "1412": "equ", "1413": "ings ", "1414": "spectiv", "1415": "vert", "1416": ". M", "1417": "Fr", "1418": "ation of ", "1419": "prom", "1420": "Com", "1421": "chec", "1422": "accur", "1423": "result", "1424": "ship ", "1425": "perat", "1426": "question", "1427": "prof", "1428": "econom", "1429": "natural ", "1430": "both ", "1431": "lim", "1432": "cas", "1433": "es.\nAssistant: ", "1434": "look", "1435": "educ", "1436": "learn ", "1437": "ual", "1438": "lob", "1439": "; ", "1440": "3 ", "1441": "erm", "1442": "sha", "1443": "may ", "1444": "ewrit", "1445": "ended ", "1446": "eful", "1447": "resourc", "1448": "old", "1449": "ploy", "1450": "ous", "1451": " than ", "1452": "a tim", "1453": "often ", "1454": "edg", "1455": "tion ", "1456": "ious ", "1457": ".\n\nUser: S", "1458": ".\n\nUser: Keep it practical", "1459": "rol", "1460": "air", "1461": "many ", "1462": "first ", "1463": "ild", "1464": "alk", "1465": "were ", "1466": "bil", "1467": " take ", "1468": "alcul", "1469": "pass", "1470": "application", "1471": "air ", "1472": "om ", "1473": "Rewrit", "1474": "e\nAssistant: ", "1475": "machine ", "1476": "0% of ", "1477": "and t", "1478": "__", "1479": "ind ", "1480": "manag", "1481": "iev", "1482": "ren", "1483": "execution ", "1484": "until", "1485": "online ", "1486": "s with ", "1487": "language ", "1488": "sun", "1489": "ook ", "1490": "art with ", "1491": "De", "1492": "ugg", "1493": "git ", "1494": "owl", "1495": "\nT", "1496": "ument", "1497": "sa", "1498": " the following ", "1499": "best ", "1500": "being ", "1501": "grow", "1502": "important ", "1503": "pri", "1504": "s.\nContext: ", "1505": "ong ", "1506": "ov", "1507": "s such as ", "1508": "planning ", "1509": "day ", "1510": "current ", "1511": "are the ", "1512": "ually ", "1513": "Run ", "1514": "es in ", "1515": "solution", "1516": "ed with ", "1517": "is an ", "1518": " the next ", "1519": ". He ", "1520": "bin", "1521": "exc", "1522": "ite ", "1523": "swer", "1524": "s can ", "1525": "potential ", "1526": "y.\nAssistant: ", "1527": ".\n4. ", "1528": "ized ", "1529": "large ", "1530": "tr", "1531": "ine", "1532": "a short ", "1533": "ship", "1534": "real", "1535": "emperat", "1536": "ing in ", "1537": "Explain ", "1538": "by the ", "1539": "structure for ", "1540": "2 hour", "1541": "cr", "1542": "inute ", "1543": "command to ", "1544": "es are ", "1545": "ew ", "1546": "\n5", "1547": "s or ", "1548": "ogn", "1549": "explor", "1550": "ark", "1551": "predic", "1552": "pattern", "1553": " tra", "1554": "hi", "1555": "err", "1556": "create ", "1557": "dev", "1558": "element", "1559": "assif", "1560": "PowerShell", "1561": "sl", "1562": "joy", "1563": "-minute ", "1564": "book", "1565": "set ", "1566": "last ", "1567": "output", "1568": "care", "1569": "as a ", "1570": "met", "1571": "languag", "1572": "ity, ", "1573": "job", "1574": "part", "1575": "ed in ", "1576": "market", "1577": "business", "1578": "setup", "1579": "John ", "1580": " three ", "1581": "should I ", "1582": "caus", "1583": "ue ", "1584": " that the ", "1585": "assistan", "1586": ".\n\nUser: What is ", "1587": "ession", "1588": "week", "1589": "apt", "1590": "connect", "1591": "e the following ", "1592": "making ", "1593": "ition ", "1594": "fut", "1595": "s. A", "1596": "mi", "1597": ":\n ", "1598": "block, ", "1599": "10-minute ", "1600": "retro", "1601": "e the", "1602": "complet", "1603": "One ", "1604": "feature", "1605": "communic", "1606": "planning block, ", "1607": "planning block, execution ", "1608": "planning block, execution block", "1609": "planning block, execution block, and a ", "1610": "planning block, execution block, and a 10-minute ", "1611": "planning block, execution block, and a 10-minute retro", "1612": "planning block, execution block, and a 10-minute retrospectiv", "1613": "ism", "1614": "ermin", "1615": "ated", "1616": "world ", "1617": "can be used to ", "1618": "present", "1619": "s. The ", "1620": "software ", "1621": "opp", "1622": ".\n\nUser: Com", "1623": "add", "1624": "ve", "1625": "For the next ", "1626": "focus on one ", "1627": "focus on one outcom", "1628": "focus on one outcome: ", "1629": "art with setup", "1630": "art with setup, then ", "1631": "art with setup, then one ", "1632": "art with setup, then one deep ", "1633": "art with setup, then one deep work ", "1634": "art with setup, then one deep work block", "1635": "art with setup, then one deep work block, then ", "1636": "art with setup, then one deep work block, then a short ", "1637": "art with setup, then one deep work block, then a short review", "1638": "beaut", "1639": "ory ", "1640": "success", "1641": "es a ", "1642": "print", "1643": "ular", "1644": "skill", "1645": "access", "1646": " train", "1647": "well ", "1648": "omm", "1649": "iet", "1650": "rele", "1651": "get ", "1652": "phr", "1653": "object", "1654": "ank", "1655": "system ", "1656": "ing, and ", "1657": "clim", "1658": "fix", "1659": "non", "1660": "article ", "1661": "func", "1662": "ethod", "1663": "red ", "1664": "My ", "1665": "poll", "1666": "him", "1667": "movi", "1668": "descri", "1669": "concep", "1670": "lobal ", "1671": "cour", "1672": "let", "1673": "me ", "1674": "ond", "1675": "goal", "1676": "artificial ", "1677": "design", "1678": "tual ", "1679": "individ", "1680": "ly: ", "1681": "beca", "1682": " them ", "1683": "du", "1684": "your", "1685": "rat", "1686": "mal", "1687": "hou", "1688": "ed a ", "1689": "e their ", "1690": "! ", "1691": "pow", "1692": "leg", "1693": "require", "1694": "important", "1695": "4 ", "1696": "water ", "1697": "head", "1698": "food ", "1699": "find ", "1700": "valid", "1701": "great", "1702": "publ", "1703": "event", "1704": "log ", "1705": "vol", "1706": "computer ", "1707": "ity and ", "1708": "happ", "1709": " that", "1710": "hy", "1711": "recogn", "1712": "back ", "1713": ", I ", "1714": "conver", "1715": "+ ", "1716": "direct ", "1717": "red", "1718": "!\n\nUser: ", "1719": "s. It ", "1720": "opic", "1721": "off", "1722": "s.\n", "1723": ".\n\nUser: Describe the ", "1724": "increase ", "1725": "You", "1726": "er to ", "1727": "correc", "1728": "feel", "1729": "ations ", "1730": "can I ", "1731": "employ", "1732": "user ", "1733": " toget", "1734": "answer", "1735": ".\n\nUser: Answer in simple words. ", "1736": "only ", "1737": "\u00e2\u0080\u009d", "1738": "Recomm", "1739": "redi", "1740": "good ", "1741": "start", "1742": "efficient ", "1743": "\u00e2\u0080\u009c", "1744": "Explain the ", "1745": "plat", "1746": " the t", "1747": "it in ", "1748": "il ", "1749": "hom", "1750": "depend", "1751": ". Additionally, ", "1752": "bod", "1753": ". E", "1754": "old ", "1755": "jo", "1756": "ing.\nAssistant: ", "1757": "sive ", "1758": "plan ", "1759": "meas", "1760": "e for ", "1761": "y s", "1762": ".\n\nUser: Con", "1763": " then ", "1764": "phy", "1765": "Prov", "1766": "complex", "1767": "ustr", "1768": "la", "1769": "gu", "1770": "have a ", "1771": "I'", "1772": "e to the ", "1773": "ativ", "1774": "Get", "1775": "human", "1776": "t and ", "1777": "ies, ", "1778": "great ", "1779": "debu", "1780": "side ", "1781": "network", "1782": "low ", "1783": "as well ", "1784": "strateg", "1785": "cent", "1786": "project ", "1787": "light ", "1788": "provide a ", "1789": "input", "1790": "18", "1791": "ing for ", "1792": "pare ", "1793": "optim", "1794": "grou", "1795": "ital ", "1796": "ive me the ", "1797": "color", "1798": "benefit", "1799": "advant", "1800": "is to ", "1801": "was", "1802": "over ", "1803": "physic", "1804": "raf", "1805": "verb", "1806": "emi", "1807": "where ", "1808": "email", "1809": "offer", "1810": "Ad", "1811": "impl", "1812": "well", "1813": "gen", "1814": "order to ", "1815": "environment ", "1816": "diffic", "1817": "virtual ", "1818": "organiz", "1819": "main", "1820": "driv", "1821": "check", "1822": "ify ", "1823": "it to ", "1824": "animal", "1825": "veg", "1826": "lov", "1827": "sentence.\nContext: ", "1828": "given", "1829": "way ", "1830": "\nThis ", "1831": "echnolog", "1832": ".\n\nUser: Write a ", "1833": "en a ", "1834": "ewable ", "1835": "into the ", "1836": "care ", "1837": "havi", "1838": "</", "1839": "sing", "1840": "land", "1841": "ish ", "1842": "easi", "1843": "consist", "1844": " through ", "1845": ". It is ", "1846": "return ", "1847": "model ", "1848": "nec", "1849": "onth", "1850": "someth", "1851": "t, ", "1852": "ros", "1853": "y this", "1854": "ategor", "1855": "ummar", "1856": "les", "1857": "human ", "1858": ":\n1. ", "1859": "ulti", "1860": "gar", "1861": "contin", "1862": ".\nAssistant: Use this ", "1863": "Name ", "1864": "e.\n", "1865": "clear", "1866": "urth", "1867": "erc", "1868": "paragr", "1869": "bit", "1870": "including ", "1871": "ire ", "1872": "never ", "1873": "ways ", "1874": "code", "1875": "dig", "1876": "portun", "1877": "because ", "1878": "web ", "1879": "sport", "1880": "invest", "1881": "advantag", "1882": "Find the ", "1883": "spac", "1884": "s of a ", "1885": "United ", "1886": "sequ", "1887": "Try this", "1888": "Try this:\n", "1889": "known ", "1890": "In ", "1891": "15", "1892": "Recommended ", "1893": "Recommended command", "1894": "Recommended command:\n", "1895": "Run it in ", "1896": "An ", "1897": "mot", "1898": "clou", "1899": "can help ", "1900": "2 hours ", "1901": "Python", "1902": "cover", "1903": "warm", "1904": "into a ", "1905": "cert", "1906": "opportun", "1907": "cam", "1908": "udi", "1909": "ask ", "1910": "break", "1911": "partic", "1912": "ise ", "1913": "e tim", "1914": "reate ", "1915": "bir", "1916": "Con", "1917": "1/", "1918": "engag", "1919": "solv", "1920": "ly, ", "1921": "Qu", "1922": "process ", "1923": "view ", "1924": "pi", "1925": "imag", "1926": "global ", "1927": "Get-", "1928": ".\nAssistant: A ", "1929": ".\nAssistant: For the next ", "1930": ". Start with setup, then one deep work block, then a short review", "1931": "information ", "1932": "is the direct ", "1933": "?\n", "1934": "hor", "1935": ". \n\n", "1936": "ner", "1937": ", t", "1938": "disc", "1939": "scen", "1940": "AI", "1941": "cost", "1942": "customer", "1943": "cat", "1944": "\n\nUser: G", "1945": "ength", "1946": "show", "1947": "dem", "1948": "Use", "1949": "Use:\n", "1950": "hat is the direct ", "1951": "hat is the direct way to ", "1952": "rad", "1953": "of t", "1954": "e to", "1955": "command should I ", "1956": "command should I run ", "1957": "command should I run in ", "1958": "\nThis should ", "1959": ". How ", "1960": "\nRun it in ", "1961": "pet", "1962": "ven", "1963": "ean", "1964": "Be concise: ", "1965": "media ", "1966": " technology ", "1967": "during ", "1968": "lab", "1969": "cult", "1970": "keep ", "1971": "wo", "1972": "has a ", "1973": "behavi", "1974": "sav", "1975": "relation", "1976": "I can", "1977": ". In ", "1978": "sn", "1979": "-t", "1980": "pap", "1981": "sis ", "1982": "document", "1983": "esp", "1984": "constr", "1985": "I am ", "1986": "Identify the ", "1987": "enabl", "1988": "lay", "1989": "character", "1990": "0 minutes, ", "1991": "0 minutes structure for ", "1992": "\nThat is the direct way to ", "1993": "aver", "1994": "artificial intellig", "1995": ". Ad", "1996": "use of ", "1997": "by", "1998": "ing of ", "1999": "ivity", "2000": "fect ", "2001": "constraint", "2002": "US", "2003": "regre", "2004": "idd", "2005": "using the ", "2006": "creative ", "2007": "ate chang", "2008": "necess", "2009": "witch", "2010": "vent", "2011": "0 minutes, focus on one outcome: ", "2012": "struction", "2013": "alleng", "2014": "ult ", "2015": "ose ", "2016": "e. The ", "2017": "per ", "2018": "ure, ", "2019": "ster", "2020": "ently ", "2021": ">\n ", "2022": "determin", "2023": "found ", "2024": "less ", "2025": "key ", "2026": ". W", "2027": "fort", "2028": ".\n\nUser: Be concise. ", "2029": "flu", "2030": "enerate ", "2031": "life ", "2032": "az", "2033": "even ", "2034": "expect", "2035": "without ", "2036": "Mo", "2037": "ot ", "2038": "same ", "2039": "pa", "2040": ". They ", "2041": "fre", "2042": "ailor", "2043": "erial", "2044": "example ", "2045": "?\n\nUser: ", "2046": "ink ", "2047": "sever"}}